C5
2B
61
BE
49
64
C2
0A
CE
45
66
0D
C8
9F
04
C2
78
93
29
13
D0
0F
DB
C0
15
03
2B
E6
B2
B0
B4
90
00
E5
D9
5D
5E
81
BD
74
32
C1
85
53
66
F7
36
86
F7
F4
92
20
29
72
41
0F
71
DC
96
D6
71
89
46
0D
E9
58
4D
20
1C
F4
48
91
59
24
ED
62
02
D8
60
9F
6E
3E
48
D1
B6
6A
B5
A2
CA
A8
79
3E
BC
32
17
2C
30
DE
38
A3
A4
93
92
79
1E
01
F1
9D
EE
28
30
36
AE
18
56
AF
00
2B
ED
92
C5
39
AC
E5
E4
0D
84
3E
82
37
50
65
B2
83
5C
1B
E1
1F
6E
E0
0C
FD
ED
50
23
C4
40
48
F7
38
3E
BF
24
22
D5
C2
F6
98
B3
84
82
D0
B1
EF
BB
24
00
06
F4
0D
3D
B0
E1
BE
6A
11
28
24
FB
B3
9C
5D
DD
DC
60
53
99
BD
31
C7
FD
86
F2
F7
B1
F0
40
9F
CC
B2
A2
1A
0A
6B
1F
27
91
DE
4D
69
96
4C
D2
F6
FD
51
5C
01
B6
A6
43
10
C6
77
20
AE
2F
26
5E
18
28
70
7E
A4
9A
83
E7
0F
9F
61
6B
C9
EB
C6
13
9D
F9
EB
E8
6C
0D
13
E2
7D
76
B6
C5
0D
80
3C
3C
E9
97
21
43
51
61
87
B1
5F
4F
99
EC
04
E3
1C
B0
93
5B
89
B8
C1
CF
D5
82
06
BD
A5
B8
66
05
37
B8
03
B8
6C
A8
0D
FD
E1
C9
96
C0
2B
96
BA
42
D8
2F
18
C5
70
D1
A7
F6
41
80
9E
F4
8D
86
62
0D
5F
B2
9C
48
31
45
56
F1
9E
30
1F
61
8C
CC
3A
69
70
A8
46
A8
77
97
39
5B
6E
8D
EA
EA
56
5B
3E
4D
F4
73
AC
AE
A6
7D
F1
3C
40
3E
D0
48
0C
2F
15
80
57
9C
28
10
12
70
1E
8B
76
E0
11
A6
D9
FB
9B
44
60
54
09
98
61
9C
54
77
47
52
A2
6A
67
F6
00
29
F0
CF
40
54
D0
9A
DA
0B
C9
D4
C5
1F
7F
F9
E6
AF
53
42
80
8D
9C
24
A7
C8
FD
1A
EB
D1
13
42
56
B7
11
22
81
E1
D5
3F
D7
AE
11
8F
60
EC
82
38
B4
D5
23
58
2D
24
87
8D
41
6F
0E
12
B6
2E
9D
98
9C
04
AE
F8
CD
56
F5
66
E2
A0
01
80
C0
0A
A6
5F
E4
EB
3B
2E
BA
41
C0
44
63
E8
CA
57
7C
A1
CF
07
DA
20
26
E3
6A
41
75
58
B1
B7
53
5F
65
A1
8B
2E
45
9C
AF
98
7D
DE
73
04
65
F2
17
B0
F4
58
C5
3D
B5
C1
7D
98
B8
54
19
81
B9
BF
E5
3A
29
D8
6B
54
78
E9
45
65
A1
BC
84
2E
28
75
4A
23
DC
D3
BA
00
8B
31
81
7F
04
AC
54
7E
65
4A
1E
81
9B
7F
4D
6D
CF
C0
7C
05
8B
24
CC
B7
BA
DB
31
F2
42
02
73
F4
B5
DD
B2
9E
69
BC
6B
F1
56
E7
93
89
98
86
60
46
28
FC
40
84
46
A3
03
16
8C
FC
EF
F1
06
95
C9
0E
19
2B
0E
A6
2E
2E
08
95
B1
3B
6B
09
E4
21
50
97
72
E2
B5
28
B3
1A
A1
2D
0F
6F
E5
02
1A
D0
EA
94
68
ED
F7
A8
4C
A2
C7
B1
FA
82
99
8C
F3
3A
72
86
D7
E6
0B
37
39
F2
9A
87
30
93
95
B0
AF
1A
AE
14
4E
CA
1F
C8
18
33
0E
5B
49
E3
72
8D
C5
3D
A7
8B
FC
51
F0
67
02
CA
EE
93
75
3D
44
18
F9
A7
9A
27
3C
13
5D
6B
1D
72
89
D7
CB
D3
69
73
2A
69
54
F1
BF
14
9D
D1
5F
1C
A0
20
87
85
3D
A7
C8
B4
61
E3
48
C4
C2
39
73
4B
D1
F6
22
88
0E
3A
DB
4B
E2
6A
CA
E0
70
1E
D5
24
BE
6A
A3
A2
9A
48
47
34
82
19
51
92
9E
D9
63
E5
9B
1F
60
B4
F0
7B
0B
DD
B2
74
B1
0A
55
30
30
17
E3
03
93
CD
EF
5E
35
8D
CD
0A
A9
86
11
C6
22
CC
B7
27
CC
DB
3B
CA
91
A7
1D
07
6E
C0
74
CE
6A
98
3A
68
7B
AE
F5
B4
33
C8
EE
33
5C
62
3B
58
38
1F
CD
3B
82
7D
37
28
1A
25
F5
F3
A2
E7
EF
05
22
42
B8
DF
12
FA
9F
0C
5B
72
C1
D0
12
21
C4
E9
4C
16
D5
E1
7D
9A
24
08
02
A0
17
50
03
F1
E4
A5
72
22
C7
1A
95
52
2D
C1
91
19
1F
58
F2
0B
7B
6E
05
73
3F
AC
0F
60
BD
A2
18
4E
86
A7
1B
93
6D
F0
A8
AA
8A
38
1A
EB
96
9B
BA
DD
38
AD
EA
20
A0
A3
1D
4F
FA
2D
79
9F
9D
D5
4F
7A
DD
43
1D
AE
B8
5F
9E
6A
27
AF
5E
8E
CE
A1
BD
00
E3
F1
60
83
5C
C5
7F
37
C3
66
F9
2F
D3
11
19
DF
6D
35
56
AB
24
E6
B5
D5
C2
6E
B9
CC
2C
D4
6E
32
A0
59
D0
B4
1E
49
A3
4F
C9
91
9D
4E
77
EF
F3
F1
97
57
E6
47
2F
9D
62
0D
29
3D
43
A4
A1
9E
5E
5A
B0
D0
78
AF
7F
84
2D
84
28
2A
43
EE
B4
5D
C7
82
1B
1E
14
59
DB
35
19
C4
13
4D
9A
22
78
D8
32
79
47
76
BF
D0
33
23
22
12
08
31
B9
35
CF
5B
DD
CA
97
1E
30
38
F6
17
07
A2
B1
1F
92
92
15
87
3B
16
C1
7A
6D
52
40
6C
A0
1A
2D
DB
48
BD
0A
46
88
1F
09
05
D9
60
84
0B
CA
43
EB
EA
F9
08
B9
A8
BF
AB
41
81
C6
59
47
17
57
00
35
6A
B0
CD
9E
30
A3
5E
94
DF
87
5B
02
57
E5
5E
1A
16
30
14
F8
BC
0E
5F
EF
18
5E
76
0C
B9
4B
46
C0
95
70
55
BB
33
12
14
1A
06
0C
1F
21
51
6E
1A
4A
EC
84
3C
75
CD
79
0A
1A
51
85
E1
CE
8E
07
B8
2C
8E
CF
7B
95
88
00
7E
31
62
B2
B8
D3
1F
77
06
18
3A
75
64
81
CD
8C
5C
72
00
CA
04
D2
9A
0D
30
11
5A
B9
99
4E
5F
50
CD
CF
61
CE
3B
6A
9B
1E
F5
04
34
02
EB
5B
E9
A9
68
1F
A9
60
84
E1
5C
AF
9C
F0
63
E5
93
B2
15
CA
F2
01
C2
1C
53
7B
E7
09
9B
A9
99
6A
FA
F0
7C
8E
64
14
44
FA
4A
64
26
1D
A9
0F
F2
23
2F
EC
BB
2A
10
F7
D1
F0
72
EC
C6
08
F0
13
6F
A8
F5
11
EE
2A
D8
E1
24
44
07
EC
B0
22
7A
5C
51
3A
31
BF
E2
17
1F
F6
3F
13
E7
C8
9E
DD
CB
2F
E3
EA
5A
8A
29
63
A0
50
DA
E6
11
B3
82
B4
EA
4F
A7
55
CF
B6
AF
02
D2
D9
E2
20
41
1E
FE
D4
30
BC
24
E3
D8
B6
2E
59
2E
28
7B
C9
0F
61
75
DD
36
A6
72
6D
5E
70
1E
FC
C9
8E
30
E5
99
C5
BD
44
D4
18
34
B4
61
86
FB
BC
EC
ED
3B
6F
07
87
20
2B
72
39
A6
E7
8F
F8
AE
A1
42
6D
82
2D
56
59
55
24
BD
C5
C9
CA
1F
5A
82
11
E2
4D
3D
9F
7E
B2
10
9E
26
BC
20
48
06
B1
C8
E2
FD
2D
2B
17
D5
F2
0D
DD
BF
DB
FE
3B
43
44
E3
23
98
CC
BC
9D
0B
49
6E
31
D5
5D
01
2D
62
F2
E5
80
02
E4
D0
D8
53
CE
D3
21
53
EF
83
E3
36
A8
E0
CF
28
B7
AD
2F
A1
B5
AD
4B
6B
DA
C0
71
4A
C8
E4
96
4A
23
1A
67
EE
36
FE
43
07
EB
25
60
13
77
E5
18
B9
55
B8
EA
F6
9A
F4
EC
E3
4E
51
8E
4A
05
14
6E
9B
D9
21
12
12
CD
5E
C8
48
F2
1E
4C
86
88
D0
D5
82
53
B8
CD
EC
BA
EF
D0
87
90
76
D1
94
01
95
1B
16
2E
58
3A
90
A9
CB
F5
71
02
D5
82
75
0C
AE
93
17
E2
DF
0C
D4
5A
ED
59
C7
B3
50
D0
F2
A9
B1
9A
73
12
91
8B
52
E2
4A
C5
84
7C
01
97
B8
78
1D
72
36
8B
50
3F
E7
DD
A9
40
DA
64
6F
BE
BC
CC
23
04
72
D7
32
14
A9
D1
3E
4E
B0
2E
9C
E0
B3
4A
DB
F8
28
E8
C3
D1
71
5C
97
DF
23
1D
52
B1
CC
90
D0
E9
00
91
43
C4
2F
1B
6D
98
90
11
A3
DC
6A
00
7D
A5
6B
61
61
16
77
55
C6
40
ED
E8
F6
78
65
B3
7A
04
77
56
DC
02
BC
AA
48
D3
9D
2F
3D
FA
66
00
90
B9
85
12
02
95
1D
26
82
A9
32
36
93
DE
01
95
84
2C
26
3F
AF
A6
38
1F
8B
71
76
7D
95
0C
9E
51
1F
38
15
D6
4F
06
5E
A4
8A
FA
A3
53
CE
C6
3E
EC
A5
6A
BE
47
9C
AA
D7
AF
F3
5D
9A
FE
73
F0
24
C9
45
07
C5
8D
39
6C
37
48
7C
0A
52
CC
5C
AC
6A
63
E2
81
17
4E
F4
98
56
66
98
77
E3
75
C4
33
2E
AC
A5
CD
F5
1A
4B
D1
34
FE
D0
8F
9A
D8
B3
46
8E
1D
8F
0A
1E
D3
DD
06
D4
C6
E9
CF
71
D4
5B
39
5B
E6
D5
37
9A
47
20
AF
1C
C7
87
C1
4B
E5
B1
33
53
0A
31
13
1C
F1
B1
18
72
0A
A1
CC
78
00
1B
9E
B3
D1
DD
27
3D
AF
17
68
0D
79
02
B7
27
E7
A2
EB
2D
F1
7C
71
DE
68
54
10
DB
9F
D0
F6
3D
03
CA
1D
43
B1
A4
20
96
02
22
26
3C
37
64
41
F6
24
5E
5F
10
AA
8A
5C
91
B4
B1
BA
11
13
23
0F
23
C5
D9
11
DA
A1
7F
BA
27
F1
6E
E2
02
3F
FD
3F
C6
E9
16
7E
71
2E
B2
2D
4A
F4
FC
EB
FB
10
95
7E
E0
FC
E9
3F
49
A3
C5
62
3F
B6
60
F4
E8
71
DC
3A
AF
C5
84
77
38
8C
F9
6A
65
2A
BE
85
FC
C9
D0
5C
A5
E6
90
B4
29
4A
99
8B
8C
D4
99
6A
91
FA
FE
90
FB
8D
23
3C
E7
C5
33
55
0A
10
1D
27
5F
19
3A
3D
7B
AD
A5
DC
23
31
F5
5E
C2
BA
BD
17
1C
17
AC
BE
6F
0A
AD
C7
94
7E
3A
67
D6
D7
AF
B4
9A
C0
3E
8C
2F
80
B8
EE
A9
56
8A
B8
39
08
43
90
5F
F8
03
8C
0E
66
74
BC
00
22
ED
F8
5F
43
4D
BD
C7
BD
D1
61
67
74
EC
23
F4
B3
BE
79
9C
17
9D
88
E9
31
02
EB
72
E0
75
A8
A9
9E
3A
31
AF
AA
22
48
01
DE
2E
32
F1
9B
D0
15
3D
35
C8
95
50
6A
34
22
55
F1
CD
FA
18
B0
16
A3
51
DF
BB
8B
9C
63
CC
E4
FD
01
79
74
D4
E2
B5
60
74
67
24
38
D9
E8
9F
51
A3
48
53
CD
BE
76
39
DC
22
4E
7D
69
8F
EC
48
3E
A9
B1
CC
14
F9
1F
CA
CC
E4
B7
B1
C8
20
CE
22
3E
23
38
5C
09
13
6C
C5
A7
01
F3
C1
61
44
21
A0
6B
15
8F
14
CE
68
50
C3
5E
00
F3
68
C6
AD
44
3F
B2
A6
55
C0
61
3C
A1
83
2D
91
F8
8D
5E
5C
CF
8B
E0
E6
FA
26
9A
46
76
A8
1F
12
27
1F
31
96
1E
EB
C3
A9
33
26
FA
EC
34
B6
C9
F1
26
C7
DA
33
F4
66
17
1D
B1
15
2D
32
F9
F3
D2
04
BA
0D
1A
2B
28
7C
3E
EA
49
EB
16
9F
F1
3A
14
AA
96
E5
FC
61
2C
14
8C
BD
41
DC
12
9F
86
7A
F3
80
37
EA
FE
5C
28
56
C7
07
AA
C5
6E
03
C7
46
BB
08
BA
3B
59
40
5B
3A
44
F8
8F
FB
57
A8
8F
A3
B9
B3
17
06
38
5D
17
6D
0F
75
D0
78
48
0B
2E
AE
94
1A
7D
4B
B9
59
EA
CF
1F
CE
8C
C0
FD
92
8C
3C
0E
31
89
B7
E3
51
EA
BE
BF
3A
82
95
E3
01
40
DF
4C
4F
5D
82
58
E1
DE
88
0E
67
BC
DF
B5
52
D7
71
5C
A0
6F
94
9F
9B
C4
F3
6B
DC
9F
7D
37
DC
E8
03
17
61
89
0D
21
76
13
D3
7E
94
2B
4F
21
17
1C
3D
54
50
78
5B
EB
E8
9E
D0
5A
C4
4B
ED
BD
DF
FC
15
90
95
89
24
F1
3A
1B
AD
8F
36
07
F1
53
A9
4D
C7
E2
6C
AA
93
9D
C8
21
5A
99
12
10
96
82
6D
03
0A
EE
E3
ED
45
36
15
8E
56
AE
C1
BC
54
4B
FA
0D
A1
B9
51
4F
DD
98
EB
20
74
38
01
F5
08
78
79
B2
04
0B
8D
3B
E7
E7
CE
BC
4F
28
51
9D
52
D4
A1
3F
5A
1A
F3
6E
0E
A2
95
03
36
29
63
F7
3F
9E
98
81
34
2B
62
89
13
CE
CB
D1
81
F4
25
8C
9C
79
53
E2
C1
4E
F2
DD
F6
15
F7
80
9E
7E
76
F6
D7
F0
8A
B9
77
B3
7F
1E
F5
42
BF
2E
CB
4F
71
8F
91
06
E5
01
34
92
38
36
45
BB
00
15
B3
2C
F7
B5
1B
C9
D3
C8
D7
18
E2
06
6C
00
9C
4B
44
6B
FE
1E
BD
6C
3E
D7
91
41
09
D0
A6
EB
EF
42
B4
F2
1D
3C
70
58
C7
D4
7F
9B
33
90
8D
91
59
CF
7E
6D
3E
FB
6B
23
68
ED
FB
0C
4F
53
CD
BF
5A
0F
F6
D7
51
80
76
AF
DB
97
EE
48
78
24
30
0F
E1
DA
23
94
4A
F9
C9
08
18
4B
DE
CD
08
A4
02
C4
CF
1A
E9
64
8B
7B
81
D0
B9
A8
EF
D1
0C
09
C4
AE
60
3D
9D
DF
EE
96
54
8D
AE
25
9B
AB
E4
56
6B
2E
53
D0
94
64
D1
C9
B5
75
19
FB
21
46
88
34
21
C6
C7
10
43
38
D6
2B
95
5D
71
87
0A
F7
03
74
12
A7
35
E3
FE
C6
47
BC
64
4D
EC
FE
08
9F
7B
B1
99
30
A1
A6
CC
FD
F8
99
06
27
EA
78
41
4F
25
77
80
34
E0
8B
F1
74
C6
A5
A7
98
A1
20
F7
2E
F1
51
47
89
B5
37
85
53
E8
64
3F
C7
3A
BC
48
93
03
1B
C5
AA
38
BB
48
8B
34
DB
23
E1
F9
1D
9A
66
0F
98
16
C1
AC
80
3D
6D
90
4E
CF
6B
D4
2A
9D
3D
47
8F
12
07
66
48
80
11
36
40
69
27
F6
94
CB
41
05
83
54
2E
01
F2
94
46
29
70
B9
AA
10
AB
0A
74
17
B9
0A
AC
63
97
C5
88
6C
54
BC
9C
29
2F
CF
8A
43
30
9A
D3
75
00
D2
09
9E
0B
EB
FC
D4
5B
58
AC
C4
00
9F
4B
51
FB
E0
D6
5D
71
15
26
73
CE
85
E5
C6
26
9C
D3
E7
BA
D7
29
E0
C4
88
28
81
BF
3E
21
04
10
7E
16
A3
FC
19
A8
71
7D
E2
14
79
F4
11
C4
4C
86
8E
AC
BE
B0
8E
D4
28
F1
D4
EF
F6
82
C9
18
55
D6
59
00
F8
0F
BC
09
C5
32
7B
7B
D1
80
6D
06
7C
9A
E6
BF
A5
4A
1B
5A
A9
5A
B9
3D
08
F2
1C
73
2F
3C
55
DC
48
13
B9
19
81
94
12
3D
45
7E
C1
1F
58
3F
0A
D8
EF
56
0E
08
E9
40
E8
06
36
E2
43
CC
B9
44
E1
6B
1B
E4
30
E7
F4
13
98
31
30
F1
90
B2
C3
0C
02
11
49
B7
AA
E0
EF
A0
15
E8
57
FC
21
77
99
71
26
FB
7B
D5
B8
92
24
05
BE
EC
FC
B1
32
96
C4
E3
22
E7
49
39
C4
CD
F9
60
E1
87
E2
C7
EF
30
B8
DA
06
A7
AC
99
FA
AC
42
D5
5D
61
85
DF
9C
61
03
8D
F3
6F
76
05
19
E0
EA
7D
10
67
DD
7F
22
79
D8
BA
C1
25
CD
7F
04
85
C4
4F
91
E0
C5
7A
C4
2E
B6
31
B3
F5
21
15
30
B8
D2
16
80
60
1F
07
0C
61
3C
6B
5F
F3
96
04
42
82
20
56
00
0E
DA
34
5F
10
B2
14
0E
C0
49
C3
46
5C
70
35
87
08
54
3F
A3
29
3F
E1
06
B4
47
F4
E0
53
05
BE
72
6C
53
F3
9A
3C
D8
79
A1
60
07
F3
98
05
31
6F
26
1B
CF
9E
45
11
1B
76
54
FA
89
F6
0E
D2
CB
86
71
D7
D1
B0
53
E6
A6
45
72
D5
9A
AC
65
DF
D2
70
4B
18
15
C6
59
46
72
74
26
E1
BB
75
74
F3
50
A9
8C
B7
D2
BE
FB
79
66
81
72
5D
9E
B7
E3
B4
8D
51
22
0B
AE
EF
B6
69
FC
46
20
31
CF
2F
1B
94
10
31
C8
A8
48
52
4B
9D
38
9A
E7
11
44
85
65
5F
BF
57
B3
D1
72
FE
12
32
23
F9
BA
0F
4D
6E
09
DC
07
60
6C
A5
E4
BA
4E
61
10
2F
C8
FC
A1
B6
F3
C8
E9
C7
CC
C8
13
2A
B2
E9
01
89
78
B5
99
1B
F1
C0
C4
9F
1C
6F
5B
16
F4
4A
C5
9B
1F
CF
8C
54
A1
DE
4C
34
FE
DB
8D
CD
CE
F2
CD
33
D5
9C
6C
0B
16
E8
C4
B8
1D
7E
DC
65
E1
8C
77
B2
CB
97
8A
14
CC
4C
E5
C6
43
58
41
97
AA
BF
C4
5C
76
BF
44
A3
B4
1F
A5
0C
85
19
30
18
27
27
05
E8
3C
51
B7
E0
F0
D3
A0
57
04
F9
B8
47
7A
0F
88
ED
C5
FC
60
32
41
2D
6F
64
BD
DE
79
96
64
74
E9
D2
43
94
2F
95
F4
B8
5D
D7
DC
DE
77
AA
8C
54
74
A4
1D
72
EA
F9
D5
F7
78
07
7B
D4
D0
84
70
59
C9
E9
3A
2D
F3
69
95
A3
26
F3
27
C4
DE
A6
CA
98
4B
25
CE
52
F6
A1
BB
B7
EA
CC
DD
5B
7A
DF
9D
FD
5F
CA
6D
5E
D6
D3
A5
16
C5
0B
82
A2
9B
0B
2A
B0
F8
22
09
B6
4B
24
C5
B7
6B
EF
B0
B8
0C
19
C8
0A
FD
A9
81
10
A4
96
7B
BD
65
B0
CA
83
84
6B
91
E6
19
43
F6
D9
D9
F0
49
98
42
72
4A
F4
B1
80
7C
04
2D
F3
92
3B
8B
F3
A3
1D
8C
80
FB
DE
99
BB
8E
5A
9B
EB
66
C5
3F
57
D6
1B
0E
0A
6B
59
84
84
61
5C
41
6D
F0
F0
97
9A
C8
73
4E
4A
AA
67
68
3F
AD
39
AD
C1
82
76
6E
0D
CF
A6
C5
0F
F7
DE
12
2A
B9
F4
16
54
24
F9
A5
AB
B6
6C
E8
92
26
85
64
D5
B5
24
4C
AD
2C
6D
69
4E
2D
E5
83
C7
F1
35
2A
6E
DE
98
0B
2F
2E
B5
95
E7
C0
6D
27
56
C2
8A
03
8D
77
C0
D4
F4
79
1B
BB
80
9E
18
6D
38
C1
92
40
E5
EE
4B
55
A9
8B
A7
81
9F
74
8F
CE
04
3A
7E
5E
4D
EF
E3
C0
9A
5A
F5
B2
30
B9
44
CC
94
DC
CE
5E
0F
F8
C2
FE
0A
E1
1B
09
7E
9E
6B
31
6F
78
12
D9
35
FE
D6
98
02
6E
F8
03
C8
C8
04
1A
E1
68
71
D7
D1
4E
A0
95
55
C0
02
AD
96
41
4D
DC
16
2E
A0
1D
BE
69
CD
5F
46
9F
4E
F6
94
A5
77
57
30
E7
A5
2B
7C
AC
EF
B0
4E
7A
07
86
EC
97
45
EE
2E
9B
12
34
0B
35
92
08
AD
34
A6
6A
D8
73
46
1F
17
F0
8E
0D
AD
45
4D
B6
55
89
78
A0
0D
54
BA
0C
2B
60
59
21
02
FD
31
A2
C0
7B
BF
0F
5D
DE
96
9E
33
B3
CA
6F
43
D2
F3
CC
27
F4
A1
F4
C7
AB
8C
5F
1B
96
8D
41
C5
D9
03
74
D6
EA
E3
FE
5B
DA
C2
A4
62
A5
74
62
56
60
74
EA
0D
8F
15
8F
19
FA
15
D2
0C
94
3E
A3
84
72
AB
9C
87
A8
54
AE
48
E9
12
6E
CD
DE
E3
05
CB
28
2D
D1
0F
C7
7C
CF
FA
9F
28
F4
62
0B
7F
65
6C
2C
F4
C8
A5
30
60
CF
DF
26
BE
14
84
2B
79
02
75
69
90
04
5E
02
6E
BE
2A
47
03
6F
22
B4
1C
A0
4C
BD
BE
B1
08
88
5E
9C
A7
AD
1A
6D
E7
FC
DB
B1
42
89
11
C7
18
67
E5
2E
82
41
4C
2D
4F
BD
53
15
4D
A3
64
1A
D3
D4
BB
4D
CF
AF
A6
6C
08
21
6E
E6
D6
AB
0A
12
0E
EB
D9
46
81
E4
3F
C3
BD
14
AE
EF
2F
71
54
11
2C
E4
01
75
98
8B
C8
6C
67
06
A5
F5
2C
05
34
49
98
79
25
BC
2D
54
5A
A0
C2
9A
E0
C7
80
B3
01
01
B4
91
B8
27
33
0B
BD
20
87
B5
C4
79
5B
2F
31
76
AF
07
7F
B1
02
FA
81
60
42
CB
6E
08
9B
84
68
D5
D2
C2
3F
B4
5F
83
3F
7C
63
03
3A
DA
82
0C
17
C8
3A
BC
C9
5C
00
5A
46
66
08
82
46
72
56
16
A7
A5
FD
AD
D9
8C
77
36
40
DD
61
13
0C
3A
3A
58
C5
6F
BC
5D
A5
53
38
08
D5
60
A0
91
E4
66
A1
E6
39
CB
50
4B
FB
A5
F2
07
14
71
7C
14
DE
A2
7C
99
A2
5E
79
7E
A1
90
74
85
50
B8
1C
57
95
81
7F
34
93
DD
89
CE
D1
85
95
A8
1D
C2
03
11
8E
2C
AB
1E
A9
94
71
55
43
26
57
F6
6B
02
34
98
B2
A2
1F
32
D5
13
CD
12
EE
EC
72
DE
A0
D2
43
D4
62
81
67
27
29
63
60
9E
EB
33
CC
DD
BF
6B
A7
60
7F
2E
FE
F3
69
44
AB
87
40
AE
46
DA
B8
04
07
2D
5C
95
D0
6D
01
8B
BF
F1
C4
23
B6
7D
4D
7B
A2
28
F4
49
67
3D
ED
06
E7
5F
59
CD
25
2E
21
57
F7
50
E4
09
2A
32
4F
00
6D
21
E5
3D
84
69
25
65
9A
D8
5A
A3
F8
9D
F6
92
DB
D1
F0
5D
7A
ED
79
BE
7C
80
96
32
67
4A
54
99
96
C4
51
B2
5D
74
1D
7F
B7
E7
D3
6F
DC
53
AA
53
EA
7E
FC
70
3E
56
A0
6B
97
11
DE
17
E9
A0
28
94
70
FD
38
A2
D5
E3
1E
BB
A5
90
AE
67
7A
E7
69
12
8E
E5
4B
FB
C7
11
3D
BB
04
68
A9
48
44
E1
63
95
D8
1F
EC
58
39
17
CF
66
AD
5C
08
12
08
C4
C2
F8
AD
CE
B8
B3
59
9F
C6
23
1E
D7
7A
75
71
B7
9F
0F
93
77
4B
12
9E
BE
C9
37
8B
BB
B6
0F
9E
59
BD
54
4C
6D
A0
AC
10
77
2F
B0
75
C0
54
EC
A0
D1
2C
B9
0C
D5
B9
08
74
B8
FA
D6
B8
8A
06
CD
51
D8
84
E0
B8
AF
58
26
8B
89
73
65
84
6D
00
57
AE
19
D8
60
BA
80
59
1F
9E
36
21
F0
F2
74
2F
0A
39
F2
8F
49
AB
39
8E
C7
31
34
E8
16
3D
96
8A
A7
DF
66
26
FE
75
52
AC
8F
9E
01
DF
F1
10
80
4B
91
07
F4
95
2A
B9
35
4F
C0
EA
CB
7C
92
CE
FA
7A
C2
E4
98
41
BD
2F
E2
F6
7B
F9
32
F0
74
CE
83
0E
68
DB
1E
6D
E9
51
4B
BB
EE
53
3D
85
B8
3B
A5
D2
2F
F7
6F
9C
3C
FC
F8
13
15
9F
24
9D
07
5E
C2
80
E9
29
72
46
0B
4B
FD
01
85
33
36
0B
EA
02
69
96
B1
96
24
65
53
EE
2C
1C
A1
B2
B4
2E
9A
62
D5
F9
23
A0
3A
E0
8A
DB
D4
46
54
19
BE
D0
21
46
AB
43
AF
4B
69
96
F7
F9
43
88
AC
3A
7E
18
7E
85
8C
EB
06
E7
0F
21
61
0D
9A
74
F2
2B
5D
87
A5
F8
9C
89
15
6A
35
18
EF
86
17
A9
AD
D6
C8
52
12
18
B6
A6
D1
F3
3A
CC
1A
E4
82
73
81
D3
1E
EA
4A
1A
EF
EA
A4
79
D3
19
4A
00
3D
5E
8A
A6
DB
7A
A1
65
80
F1
82
C7
32
54
50
CF
03
C2
62
1A
AD
E3
20
25
52
46
E1
BA
4B
5C
67
FB
31
90
A2
AA
B1
75
03
A1
BD
BB
CD
10
56
B9
4D
8D
B9
07
E3
C3
4E
68
E4
F0
D8
91
CC
BD
F1
F1
D7
76
1C
5D
72
4F
72
AE
65
39
6D
63
ED
89
AB
B6
62
96
BF
34
9C
65
74
97
A8
73
E9
21
B7
C3
A4
9C
A3
46
18
06
10
49
85
85
7D
7F
F4
EF
C8
42
AC
7F
68
83
17
B0
27
2E
1C
A5
BD
EE
43
27
A0
C7
87
D9
8A
BE
64
6B
C3
D0
E7
61
3A
B5
5C
22
48
43
DB
84
77
F5
7E
99
A4
4A
0A
D8
A3
6C
EC
2B
B8
FD
92
95
B1
22
3F
A3
E4
30
56
F0
11
F8
25
FD
83
0B
1E
28
E5
20
A8
1F
1B
5B
FE
D7
D3
5A
20
76
09
08
DA
97
06
3F
A9
B6
97
3B
39
B0
5C
FC
DC
89
58
50
54
A1
B4
DD
1C
18
D3
3E
CD
D3
C0
48
0F
2B
66
9B
BD
10
32
65
F0
1B
C0
71
45
B9
C1
5D
96
CF
95
BE
46
E6
A6
11
DE
21
B0
3F
0B
4C
6A
5A
6F
8B
A7
2A
E1
E0
5D
89
4F
38
36
8A
DD
FD
05
41
6D
89
F2
FA
46
87
26
E7
77
21
0A
8C
3D
0A
83
9E
21
F2
1A
6C
17
C8
D8
A8
8D
C5
17
6B
A4
34
B2
2E
AF
A6
F5
91
50
E2
F4
63
1D
72
43
6F
7F
62
AB
45
F2
4C
7E
7B
3E
5E
6A
FD
EF
F8
12
AC
DE
DB
C3
5C
8E
AC
1A
E4
83
BD
4E
74
9D
8C
DB
55
E0
90
45
EE
FB
07
58
EF
DA
C9
AD
1F
B2
F3
EC
8D
8C
EC
73
26
5C
93
B5
F6
06
C0
63
D1
61
2B
02
1E
F2
1B
3E
3E
2F
84
EB
10
31
D0
16
F2
91
3C
7F
64
28
66
0B
88
1F
A8
47
B0
D9
4E
A1
C9
08
57
38
C8
55
6F
6A
C5
5F
82
8E
5F
B5
59
44
9D
B8
93
9C
03
A3
9F
5B
B4
A6
44
16
33
94
10
69
D4
69
6F
57
39
72
5E
97
35
9F
10
FC
5A
3B
91
0D
CA
68
44
5C
D1
ED
60
1A
E9
BA
F4
F5
AB
EB
BB
5C
01
11
25
37
0D
07
8D
E4
1D
ED
12
60
6B
5E
8A
F2
65
16
1E
49
54
3B
48
7D
64
E3
86
64
08
5F
26
4D
2E
8A
B8
87
00
34
7F
85
34
4A
6F
89
84
05
D1
B8
39
04
28
BA
1C
20
1E
C4
E8
C4
54
CE
78
E1
FA
81
E0
14
48
7A
07
0E
2E
39
DA
7F
6B
50
C1
F6
2A
C9
A9
0C
15
AC
07
69
32
A8
9F
B8
5F
C7
30
C6
34
A6
D7
58
10
A2
4E
D9
C3
25
45
7A
75
C2
FC
18
0E
89
BE
73
53
90
10
47
A2
F7
F6
F6
C5
B8
79
57
10
52
BB
3B
92
94
B9
9B
F5
4F
28
BB
C4
FD
84
FD
01
93
DA
56
28
62
FC
FE
77
D9
BB
82
5F
AC
92
E1
1D
F5
31
21
E0
A9
30
95
2D
88
0F
CB
46
7A
EF
3B
5C
E3
D0
1F
15
62
79
EA
5F
72
02
70
83
12
46
2C
B0
E5
E7
2D
E0
06
EB
80
22
96
D3
7B
34
7E
D7
20
09
2C
95
28
97
D3
F6
05
D8
E0
EC
40
3E
DD
6F
44
92
0E
DC
44
82
4B
34
78
BE
BC
70
F6
48
8C
85
5D
2E
F8
14
1B
72
B6
C3
18
79
70
74
37
AA
F7
D0
F8
2D
91
51
DA
1B
7D
E7
BC
A4
36
0D
E2
38
48
D0
0B
F0
C3
E6
D3
3F
AA
7C
BE
0E
9D
F9
AC
9C
99
16
39
76
85
3C
58
E2
69
41
27
24
41
ED
ED
06
F9
03
45
E3
7D
34
EB
C0
F8
C4
56
D3
F6
B4
1F
4E
E2
1E
CC
C9
4B
3B
89
68
71
8C
A3
35
BB
69
49
B1
96
07
90
9D
6E
0E
6F
3D
7C
56
29
FD
79
C3
2E
6A
81
0F
53
5F
BA
67
B0
35
53
C0
91
14
88
7A
20
73
F4
4D
69
8D
B8
D3
4D
4E
79
DD
FD
60
08
F4
A6
AE
DF
7F
F5
73
31
68
CE
F2
D0
BE
A5
14
9E
A7
95
55
AE
1E
B7
37
C3
30
3C
2A
BA
B6
51
FC
52
4A
75
21
67
8B
C2
27
BE
A0
85
7F
B6
17
3E
16
2A
DC
5E
AF
62
05
ED
56
88
4C
62
C9
9D
E0
86
81
65
A3
22
A9
3E
37
12
31
56
3B
A5
8B
26
CF
D4
68
BE
CE
8F
EE
52
09
70
9F
8A
A8
10
95
D3
C5
27
94
0C
C5
FE
C5
17
E0
93
4C
60
18
D9
47
3C
63
E8
1C
C7
A7
84
56
1B
B6
75
3F
CC
0B
39
6C
D9
DE
66
F3
9D
F5
A9
DF
B5
95
16
FB
FD
6A
BC
A3
96
9E
31
A0
48
09
09
55
F7
F9
AB
FB
48
C4
02
43
5A
6E
61
4F
25
31
5D
34
CF
78
DE
22
38
6F
EF
9C
92
EE
14
2C
C4
2D
6D
35
63
AC
9D
85
0A
F1
09
4B
49
04
B2
44
E3
16
2F
0F
5B
15
A9
4B
07
AC
88
0A
CE
B2
AF
BA
39
5D
A2
C5
2C
E0
75
48
B2
C0
72
B8
41
2B
E3
95
B9
59
86
42
99
78
81
73
58
E7
03
E7
2E
7F
ED
06
F3
4D
1B
15
90
5F
AE
6A
2B
6C
C5
3A
64
84
DB
76
26
A7
66
F2
2F
41
7A
A3
7F
7C
11
9E
94
52
10
8F
29
50
81
9D
93
58
5F
ED
ED
3E
94
43
F5
49
D2
A2
90
35
5C
40
35
75
F9
87
B1
22
52
0A
4C
97
1E
42
4B
F0
61
C5
B8
CB
A4
41
87
3A
11
62
A5
AD
45
E5
6C
D2
96
B7
4D
3E
6B
4C
52
D2
FB
06
04
56
D1
CC
B7
25
AE
D9
43
97
01
AA
4F
0A
6F
01
89
21
88
C5
1D
8D
07
D1
E4
0B
D1
A9
47
37
CE
55
7C
F1
E5
0D
FD
4B
91
A4
86
06
50
26
FA
EC
F8
2F
2E
C0
43
14
7E
8E
53
1A
CC
72
95
4E
A7
0E
3F
D2
42
35
4D
A8
EB
29
22
6A
30
32
CF
F0
20
FD
92
3F
B3
64
42
6B
14
A8
9B
A2
DB
17
D5
14
0C
3C
BD
78
9E
08
96
81
B1
AC
67
D5
A0
0C
99
C9
A5
30
6E
53
F9
C1
7C
60
15
C1
58
29
C8
78
CB
B3
90
59
53
4F
88
AC
FE
2E
18
EE
FB
CD
72
F3
C7
89
80
F5
A8
16
CB
30
2C
C1
1A
3D
2B
92
E4
0E
19
0E
28
D2
38
84
BE
4B
A0
E2
01
77
42
1F
03
81
17
BA
E9
D9
D5
C3
F1
C2
4F
C6
F6
60
E9
0A
B2
1B
4B
DB
7F
2F
B4
DD
2E
FE
5E
82
5C
C6
19
02
9E
62
28
27
44
94
72
C6
B1
EC
97
24
D7
9B
1C
9C
7E
25
D7
03
DD
78
37
73
05
5B
BA
C0
2F
AC
97
21
33
DD
6F
78
33
D8
71
08
B6
A5
D6
40
94
DC
91
65
42
EB
6B
48
02
39
E7
84
35
6C
C8
C5
25
B3
C9
F3
4D
55
19
58
AC
B8
A2
6F
9A
7A
C5
9A
62
E0
23
92
55
3F
60
3C
8D
A0
C7
0C
72
CA
7D
C5
EF
3F
0C
BA
0A
0F
75
6A
0F
00
3A
E8
95
87
8A
E5
BC
94
F6
0A
64
69
7B
41
2E
10
B3
1B
9E
59
90
9F
61
AA
D2
F8
EA
42
BB
16
39
2F
C6
E6
A9
93
64
F8
55
9B
B9
07
4B
DC
35
DC
B8
DA
59
63
74
91
69
C0
B5
1B
0D
7D
8A
A7
94
B0
A8
D5
5C
47
E9
75
6A
96
6C
3C
DB
23
18
97
5C
BB
3F
6D
32
64
71
AA
4B
5C
8B
EF
DB
9A
D2
60
2F
7A
0A
96
5A
E7
B3
B6
B8
7E
30
25
D0
A4
1F
1A
62
EF
E0
B0
61
9C
64
18
E9
91
0A
66
27
6F
98
CA
30
0F
E7
3D
06
E4
F8
4A
0D
DB
4F
DD
9B
A0
3C
88
56
56
CC
7A
4B
45
8C
D6
1A
E0
EF
9E
9A
47
21
92
44
8A
9E
0D
F6
BE
35
26
F9
61
AE
76
CA
62
A7
2E
54
0A
B7
80
8D
1A
22
30
58
18
06
60
1A
2B
94
21
45
77
C8
D4
10
03
DE
0E
E8
6A
15
CF
3F
7B
AF
F5
70
E6
61
AC
37
A0
A8
BF
EC
59
6A
71
98
11
14
6F
B0
83
A0
C4
DE
81
21
EC
F0
88
CB
53
CD
24
2A
9C
1B
B6
18
94
87
DF
14
10
0C
A5
46
6B
9E
73
57
ED
7A
A6
F0
F1
AC
B3
41
22
C9
FD
95
2B
83
A3
C1
A8
AB
2D
AD
15
3A
28
3E
1C
13
BB
D6
49
5A
C9
1B
E5
93
24
7D
ED
8C
D8
15
A1
91
13
C7
29
F7
80
12
4C
08
C6
6B
D1
56
F3
03
0E
3D
2E
63
9B
5F
14
98
21
5C
F1
D7
52
D7
E3
42
3F
C8
CE
68
4A
C4
FA
36
55
76
CC
A9
BF
1C
F6
63
ED
2C
B2
3E
E5
25
FA
E6
70
12
8F
8D
55
B4
10
E2
AC
D8
45
66
F3
3D
0D
B2
0A
7D
4B
3A
99
97
7E
BE
E7
27
68
3F
5B
D0
CD
20
5B
B1
4D
A8
B1
A0
F4
BF
11
B3
23
02
C0
52
81
96
61
75
DA
30
04
50
91
34
E1
52
72
09
51
90
F3
F9
E1
62
A3
F9
DF
8D
E9
01
B3
4C
F9
62
16
3B
FB
57
DC
18
EB
5C
38
4E
19
B9
DF
D8
30
C3
8E
81
8A
70
11
45
F8
3D
B6
F4
3B
F9
D7
2F
7B
27
A2
E6
BB
25
65
82
BA
4D
B3
5F
B7
20
EE
9C
6E
57
9A
7B
6F
1E
91
B2
96
BC
15
4B
D5
3A
FE
1D
F6
92
58
28
2E
8F
11
9F
4E
92
04
E2
D2
1F
C7
D3
B2
D3
84
E4
1E
12
BB
41
BB
06
47
E8
74
2D
DB
B2
78
F9
53
10
9C
C2
44
33
5F
0C
DD
D4
3C
A1
4F
C9
F3
D0
2E
A8
8D
A8
61
46
ED
6E
05
3A
42
4F
11
C7
48
8E
3D
34
9C
93
33
24
FD
EA
C5
5C
AC
1A
58
0B
03
F4
64
26
9F
6B
E9
59
01
45
12
7C
77
FA
C9
DF
EE
EC
77
A4
15
82
69
2E
66
AF
FD
88
E9
1B
5E
9F
E1
41
FC
F4
DB
EE
D9
EB
A4
C5
1C
CC
35
64
12
E5
A0
FB
34
D2
46
C3
B7
E6
5E
C5
A7
54
B5
1F
A1
2B
E2
34
B0
FD
49
3F
55
94
62
25
85
05
54
ED
B9
19
49
0D
CA
DA
F7
E2
9F
83
BC
33
EC
49
BF
56
53
9E
F1
57
AD
FB
66
C5
F6
4F
F8
7A
AB
4A
96
33
C3
94
9B
A5
A9
C0
B1
5B
7A
51
26
35
4F
B3
46
AD
1E
8C
32
B3
F3
96
D1
59
E8
3C
BA
0E
7F
7E
E4
D1
2D
0A
08
AC
54
DB
31
E8
3B
87
55
47
D0
9D
2A
8C
AB
32
F3
B3
80
9F
14
E5
44
30
D7
3C
97
90
49
1D
B8
83
35
C2
6E
A2
78
C0
1E
A8
B9
4B
5D
65
5D
B9
BC
C6
C1
34
2B
64
16
E1
34
C0
C2
8E
C4
32
E3
E4
06
7A
DD
98
A9
04
CE
C2
59
40
A5
E7
61
3B
46
DE
78
C0
88
C8
E9
DF
6A
09
E3
78
36
E1
EF
E6
22
A0
E9
84
92
F0
8A
21
61
21
CC
C6
74
10
2F
DB
80
BF
DD
1D
28
21
66
14
57
10
31
A4
58
24
FB
44
4E
34
B3
1C
95
D2
8A
77
ED
FD
7C
1B
85
60
E8
AC
DE
7C
6C
5B
50
8C
39
40
71
10
9B
5A
86
0F
0B
B1
3A
D6
EA
AC
2F
25
59
13
DF
26
11
74
7E
1A
3B
71
E3
FE
88
69
39
58
4E
CB
68
7E
F1
7E
70
6F
63
F7
8F
70
B6
DD
E8
59
46
37
F3
91
4D
CA
79
57
14
23
4C
D5
92
F9
75
29
76
0A
7D
70
64
99
B2
12
A4
48
A2
31
E1
43
AB
6A
BE
76
8B
99
D7
19
3A
00
8F
5E
4F
F6
77
5F
E7
6E
D7
42
89
08
1D
07
D9
DD
42
1C
C0
24
15
40
9B
BC
92
B3
8C
93
C5
D6
48
3F
EA
BF
C1
5D
35
0B
9A
53
04
2C
EB
5E
F7
BE
EA
47
2B
BB
E2
A8
3A
1E
89
AF
A2
7F
D9
28
AF
9F
95
E8
07
B8
1A
FE
85
BD
01
7A
29
E3
A9
EE
54
C9
70
42
C5
3D
8F
FD
B1
DC
50
79
F6
2C
EA
65
6B
07
A6
53
AF
30
68
74
60
C9
93
F2
0F
AB
8E
1A
D0
8E
29
D4
AA
11
58
AD
04
0A
BA
D4
BC
E1
EA
A3
96
3A
BB
E9
9D
51
84
70
42
A3
02
BA
89
32
26
00
C4
46
3E
ED
68
24
48
F1
D7
0A
E9
B6
4B
75
A0
BC
16
F7
A8
D1
FB
F4
39
6C
A5
0E
43
04
D7
E8
16
81
60
D2
43
E3
F3
18
45
31
1F
63
9E
BF
9F
B5
C1
95
A4
66
37
E7
CE
6A
15
3E
01
BB
28
CF
D8
64
47
CF
6C
3C
DC
41
9C
C9
2B
02
56
70
5D
CA
6A
40
57
5A
EF
09
AC
BE
52
C4
0E
8C
70
C1
3C
18
B7
4E
5D
46
E0
19
44
DD
EB
B8
8A
1D
E8
33
73
54
28
33
94
E6
B6
A4
25
AC
FE
6C
39
98
26
80
A6
9B
82
D1
BB
67
3B
46
98
ED
60
3A
CA
85
E7
9E
86
76
B0
F2
84
2C
A2
FD
81
7F
5D
6D
F5
2C
3B
14
80
62
69
F3
AC
E8
74
FB
F4
9A
3E
1A
F6
85
C3
3B
C0
25
6C
50
A3
6F
FB
3F
47
0C
DB
9A
AC
73
B6
82
F9
ED
92
D0
BA
06
73
9F
CF
FC
81
A7
FE
B3
E7
DC
DE
39
06
E6
35
E6
91
A2
1A
9A
B6
14
C0
79
AF
B3
90
98
E9
93
68
91
B2
DE
10
5D
F7
C8
F0
20
B7
D9
F2
68
AA
65
DC
66
FC
ED
87
6F
F2
F1
4B
73
15
97
5E
BA
D3
1E
D4
7E
3A
6E
05
85
89
8F
11
0B
AC
91
C5
AF
1F
FC
13
45
B8
8C
64
B6
C2
16
B9
22
63
A2
72
E1
FB
5E
19
F8
E9
2A
18
D1
5A
69
7C
3F
9C
8A
12
50
76
91
DF
0B
8D
0E
EF
DA
90
DD
7C
30
FC
49
EF
AF
AE
A3
BC
29
49
17
9E
CC
75
38
62
2C
8C
93
3B
67
12
04
A4
25
E9
B3
3C
B4
F0
FD
A4
42
E2
EB
63
35
46
46
3B
34
53
CD
60
F7
4B
D1
C4
15
42
53
15
B9
76
EC
B5
38
BE
E0
A4
8E
C9
DE
D8
57
A5
BF
1D
CC
9C
D5
3A
B5
C3
F6
B3
BB
4B
0B
B4
0C
5D
EA
23
30
7F
FD
EA
D6
C7
B6
30
0B
B2
24
3B
AC
D7
A4
E4
C2
B9
79
73
96
71
9D
3C
02
E5
1F
12
DA
07
F0
CA
1F
E7
19
F4
34
FC
31
8F
FD
F7
2C
D1
BD
97
4A
CC
7B
33
BA
9D
1D
46
4E
28
8C
21
C3
77
60
A9
2E
49
73
1D
E1
68
76
FD
06
E4
25
FD
61
CF
38
41
CF
87
96
14
EF
CE
83
81
0B
54
02
02
6E
D3
31
67
B3
06
87
2D
8C
33
B6
BF
76
65
AB
1D
BE
91
A9
35
C6
8E
AE
99
3D
B6
98
49
7D
0C
BA
E1
8C
E5
34
CB
40
82
DA
F7
DE
01
1F
25
D0
A7
65
CE
60
18
3B
4F
55
DA
48
9B
B3
7E
BB
9C
E0
E7
3C
03
61
DA
86
43
80
CB
51
11
08
0C
83
FC
92
E6
C2
2A
DC
88
46
F9
18
0D
61
CE
55
11
85
02
2B
15
BB
1F
BE
C0
5E
CF
A9
D3
0D
F7
98
D6
6E
67
7B
02
59
0D
90
AB
C9
BD
1D
87
5A
91
6A
59
09
43
AD
89
E2
71
80
6E
C5
B8
A9
81
E2
4D
38
AA
28
35
86
56
FE
3A
21
95
86
A9
68
2B
A9
9C
C0
73
B0
0D
D8
20
2A
17
79
7D
87
73
26
1F
0C
AE
EF
08
C9
18
E1
2A
23
0E
71
C2
1B
21
95
B5
67
1E
42
29
95
89
4D
6B
3C
E2
E4
48
F8
41
24
3C
F3
38
DE
44
BB
AE
2E
77
2A
8A
81
89
43
50
23
CB
01
3A
90
8B
E6
ED
44
75
75
60
C4
D2
99
60
62
36
B1
80
82
8B
12
33
C1
BC
3B
04
54
BE
8F
C5
65
DD
7E
0F
E9
6F
52
66
90
7D
AC
60
A2
1D
E8
9C
B9
17
DE
6D
73
9D
E1
05
C0
52
1D
40
A7
94
D5
48
24
AE
BA
0B
9B
3F
9C
68
34
2C
5B
04
D1
2C
8F
29
3B
F4
7F
4C
5B
E1
DC
FE
CE
DF
AD
A7
55
7B
98
84
F8
DA
42
55
4B
8B
47
07
50
CC
60
0C
B4
36
F9
FA
4A
4E
BE
42
28
55
8C
31
64
A0
FC
83
15
7C
62
32
0F
CE
D8
A1
B1
55
3E
F1
E9
2F
05
4D
B6
F2
02
2E
CF
0C
7A
2C
47
DF
92
A0
86
73
4D
25
AE
A0
8F
F3
3B
92
30
73
CC
8C
CB
E1
56
DD
9E
04
4F
5F
43
C8
DC
5B
D0
23
26
1E
A5
F7
32
65
84
B0
C8
13
51
6D
34
5E
FD
F3
5E
E9
EB
E4
1C
80
3C
0E
B5
B3
54
AF
F2
0E
A7
1A
07
CA
D4
D6
57
16
6B
D9
0F
B8
3F
14
5A
AA
9D
A6
7C
37
17
12
4C
FB
87
A8
B8
7B
E2
93
EE
8C
3F
33
DD
0E
A6
0A
6A
B2
E8
66
B7
95
72
B1
AE
02
13
B8
0B
46
90
FA
20
C7
98
9F
23
DB
DE
B1
B4
9E
6E
63
B4
75
A3
D4
D2
5C
DC
29
5F
98
7C
22
6A
D6
A7
99
EA
16
D5
D0
EA
AC
F8
E3
09
DB
9B
0B
EB
19
99
42
23
B0
10
47
34
CC
DE
05
94
75
CF
14
81
AC
F3
EB
AD
91
7E
A5
56
27
EB
34
D5
4C
1D
B6
C0
5F
F1
92
A5
9F
61
E1
4C
20
2B
B7
95
BA
85
80
BA
C5
78
8C
B6
E7
37
96
93
1C
D6
AD
96
A0
88
E1
4E
E6
20
93
7E
37
BC
D9
4A
E3
00
8A
AA
F3
9F
71
30
EB
B5
57
ED
C3
6D
58
EF
D4
8A
E6
25
02
FE
68
13
D0
62
60
77
15
EE
AD
5E
17
6D
45
19
DB
7C
35
30
60
5E
A8
A3
ED
2F
2F
33
EC
0B
07
6A
FD
55
CF
74
55
C4
3F
B4
B5
3D
2A
FD
69
A4
5D
90
3F
4F
FD
13
93
02
07
3F
9F
5C
C3
E7
79
E1
84
5F
33
2C
63
2E
8E
6D
76
ED
45
91
01
DF
A4
5C
E5
FE
B2
DC
C2
76
82
A5
F8
9F
40
22
CF
E2
7A
B8
B5
75
37
6D
CE
0D
13
7E
B8
11
12
40
51
CD
F9
8E
DE
AA
67
D0
53
3A
4F
A0
9D
32
6D
5C
B1
71
2F
25
02
CA
61
C1
82
53
19
57
52
53
60
72
9D
BA
48
3E
B0
79
9B
E2
D1
E8
41
5B
B0
B4
0B
83
9A
82
71
60
19
68
74
6B
B4
77
7C
55
27
E4
2A
E4
1F
4C
1A
28
51
58
D2
FD
CC
3C
56
BD
22
68
7C
7B
15
AD
2A
7F
0A
B5
5E
6B
67
DA
82
0C
B8
24
86
51
58
42
27
30
E8
92
AB
04
C0
97
EA
60
C0
EB
8C
64
5E
AE
D7
C7
34
93
D9
74
A6
3D
40
85
60
93
8D
1B
4E
31
A2
E9
B8
99
3D
7A
B1
8F
4D
2A
AC
3E
69
C9
1E
7A
DA
77
1A
8B
D3
95
4D
8B
55
A1
52
CA
1E
AB
04
4E
CB
3B
E6
8A
12
21
19
8A
40
32
A9
AE
B8
0C
B6
1A
8D
13
D9
93
C7
62
B0
19
52
B6
85
12
EC
4C
6C
3F
6A
E4
C3
84
DB
46
54
B3
DD
1C
4E
6E
DF
45
D7
F4
40
B2
35
5A
6D
1C
19
25
5A
C4
CB
FC
CD
1A
23
E5
67
27
21
25
2E
AA
F4
5F
60
6E
10
45
4C
C3
06
D5
F3
B1
43
05
28
C3
74
CE
B9
07
67
B0
92
2C
96
6C
E1
03
95
28
C1
56
21
AD
41
58
B5
65
D0
24
14
11
39
FE
F0
34
34
84
76
A2
09
C2
43
0E
2B
55
87
EB
4D
9F
72
BA
23
8A
CC
BB
B5
55
C9
65
1B
52
30
CB
18
46
24
10
EC
E4
19
D1
85
C6
B4
1B
9E
90
B5
55
0A
F0
83
B1
B4
1E
A7
12
E8
28
29
5D
AC
75
77
00
7A
F1
67
04
08
98
6E
6E
D0
3E
AB
63
06
DE
D0
22
0D
A1
9A
97
13
E5
DC
8A
2E
58
01
D5
95
73
F5
DB
27
BF
D6
DC
5D
AD
9C
83
73
D9
86
5D
D5
9D
12
91
D9
FD
E9
DC
26
B4
D4
E3
0C
06
56
5C
07
04
52
8E
6D
8A
DF
FA
EC
F3
35
53
FA
CE
F6
11
20
DF
4F
B8
2B
6F
A0
C1
85
E4
47
66
2E
AD
55
E5
1E
F9
85
8E
11
18
31
EB
44
67
FB
62
C5
2D
4B
A6
D3
FC
B8
EF
01
4C
5D
E7
9D
7D
EE
08
3F
17
32
69
05
32
F2
E0
B4
F5
BD
86
FA
B1
2E
0B
27
CE
5D
2E
0B
8A
AD
46
6E
3C
8F
9F
A6
2C
27
83
67
CF
00
AB
BB
C8
DB
52
FA
69
88
BC
8C
90
D7
CC
B3
9C
B7
81
1C
99
BB
8B
ED
98
8E
03
74
21
AF
D6
31
13
17
23
6C
8A
7D
3C
AF
6B
AB
BA
FD
3B
E3
3A
A8
B4
E0
02
DC
2C
2F
73
19
47
AA
61
CC
FB
5E
2E
34
9C
81
73
A5
FD
61
25
86
E2
FB
F6
49
53
FB
7B
81
40
03
16
F1
9E
AE
59
AB
D5
2A
61
AE
C3
CD
B9
93
1B
6A
2C
63
DE
BE
C5
27
56
2C
79
11
4C
6D
92
2B
9E
EC
89
5B
3F
CE
21
41
75
E1
B1
9A
31
79
9B
8B
94
9C
09
E6
1C
C8
B7
97
93
F2
C2
A0
4B
58
BA
9D
AD
0A
28
7F
8D
B1
52
A3
5B
CD
CE
68
21
69
0A
57
B6
65
BC
4F
1A
C0
EA
DD
F1
A0
69
E0
00
E3
D0
CF
15
27
5C
2B
3F
44
CB
C7
1C
36
AE
9C
92
B5
A5
1E
87
F4
13
95
D1
0F
FD
84
7D
F3
74
77
5A
84
39
FB
75
8F
D6
8D
88
C2
19
35
C2
4E
DB
7C
FE
42
EA
5F
EA
63
4B
90
CB
49
07
1D
E6
96
BA
AA
6E
4D
FB
B4
E2
AD
C3
39
6F
21
0D
44
84
71
ED
C3
39
44
C0
E3
D4
94
AA
CE
8D
7C
ED
49
51
8A
BC
23
08
BA
17
E9
8A
A1
AE
A1
4E
B4
42
14
C3
EB
F4
D4
BD
D8
56
BC
57
4C
FC
AF
E8
67
4C
8C
71
23
1C
38
E8
31
DD
D5
E6
D7
54
E0
9C
08
27
AB
E8
06
DE
B1
E2
C7
2C
5C
7C
AC
D0
B5
AF
F8
62
0F
7E
F5
9C
B4
CB
55
7B
D8
D3
A3
D7
B8
73
D5
57
74
FA
03
92
10
65
C2
3C
34
B9
22
C0
77
3D
C0
8E
C4
F8
BF
78
2B
90
EE
5A
AD
A9
CF
83
FD
1D
EA
D8
54
9E
7F
A5
12
09
BF
83
A7
BC
02
7A
6C
1A
80
5E
05
24
CC
AD
2A
98
0F
C9
33
67
A3
E1
2C
5F
5E
8B
13
FD
B9
1B
D7
06
02
16
E8
D9
04
44
EB
42
77
E5
D9
26
D3
E4
1E
58
E6
21
3F
D9
6F
39
18
52
06
5A
2A
B0
2E
01
30
DB
9B
41
E7
62
25
44
A5
8D
BA
40
08
7C
0F
06
07
04
55
53
8D
2A
E6
6F
B4
C6
F3
CD
34
53
59
14
E1
B2
0F
CC
2A
CD
69
B5
A6
2E
F1
3E
FC
49
4D
CE
17
73
CA
B9
A4
40
F2
64
6B
3B
B4
2E
BE
2A
89
A5
C2
E7
10
64
72
BC
06
F2
CB
2E
0F
57
28
5C
57
9D
78
E3
F4
F3
60
62
44
C8
B7
25
63
17
F4
0C
F1
7B
9D
67
64
7E
91
E6
66
5D
37
90
59
A3
47
2A
D7
2D
01
E2
06
FC
7F
6D
AB
22
56
57
33
53
8C
95
BB
15
9C
85
2F
27
84
11
FD
52
A9
14
F2
D7
1A
AC
2F
7D
18
21
B8
41
D9
5C
51
27
70
01
DF
0C
FB
1E
06
74
B8
6E
32
21
41
E9
33
7D
EC
14
34
D5
DC
10
91
11
4A
18
C2
64
AA
73
E2
82
FD
2F
F6
06
4F
9F
92
1F
9C
C6
AA
04
7A
6B
24
F8
9F
DB
0E
54
23
2F
98
63
45
16
69
D4
3D
EE
A8
1C
88
4E
DB
1C
9D
DA
36
F1
CF
DD
5A
2B
3F
4A
68
1F
9D
EB
72
65
BA
A3
EA
0B
54
1D
D8
63
54
EC
49
9A
3D
33
10
0A
83
25
62
54
24
AC
97
54
45
74
43
5A
AA
DF
5D
C2
4A
F0
A7
FE
6F
9C
93
44
43
D8
3C
46
FC
43
9A
99
8C
2E
AC
D4
45
CD
8B
C2
7F
E3
C2
9C
90
5C
75
4C
48
DF
99
F7
0A
36
43
91
65
E5
BD
E0
E1
D9
61
A1
3B
A9
A5
FB
79
5B
1D
78
72
E3
06
68
F6
4F
65
7E
D6
96
1C
00
74
24
62
BE
D4
33
5F
23
17
EC
F6
21
D4
98
F9
B3
BE
EF
32
44
1E
CE
F7
32
9B
28
70
B3
BD
CC
3C
02
F7
E6
39
BC
85
DB
33
40
40
13
C6
2D
8D
DD
D7
51
0C
98
88
E2
32
2A
54
9B
80
72
ED
5B
90
F0
8A
62
52
78
D9
42
09
E0
1B
DD
BF
0E
6F
95
E7
6A
ED
20
EE
53
9F
8B
DF
48
C4
DD
AF
28
7E
22
60
27
54
5F
CF
58
26
DC
B9
B1
97
A9
0C
C3
E7
8F
4C
AA
47
02
2D
13
A3
FB
63
6C
E7
C9
4C
BA
7D
8E
1C
89
DE
EC
5E
75
7F
95
24
5D
5A
30
47
66
11
BC
56
B3
3C
6E
3E
E0
66
61
C0
4F
AB
74
3E
ED
15
02
A4
BD
53
90
76
87
7E
17
44
E4
0C
5C
99
B0
A2
D5
B5
5E
80
0C
36
29
67
5C
32
68
F7
E1
41
14
15
77
C0
28
41
1D
90
BD
66
A9
88
25
F3
1D
85
DD
EC
DF
BB
7F
68
8A
F9
B6
A6
7F
48
5B
2C
16
76
42
7B
59
AF
82
9E
2D
6D
AC
DE
1C
1E
C3
20
F4
DD
F2
E6
D8
A3
A0
49
18
51
A0
27
9B
CF
A1
45
6C
3D
D1
B5
ED
1B
E9
9F
77
14
E2
70
96
DE
26
07
80
85
E2
BE
87
69
C6
11
AB
B0
EF
FB
D9
37
5C
70
2E
78
BD
30
45
75
C1
E7
89
65
A8
BB
88
A9
60
9E
82
99
43
40
DD
C6
6E
B9
48
62
9E
F8
63
06
C4
17
3B
EF
E2
ED
E4
8F
4C
EA
F4
D0
C4
16
71
64
E6
B8
77
F5
D0
48
33
0F
71
2A
21
E0
08
8B
DC
78
59
86
63
EE
5C
F0
7C
65
22
66
24
4C
3F
8D
A4
20
E5
AA
FC
83
CB
9A
A6
E0
94
FA
B9
D6
82
15
D4
28
40
2B
A7
F1
5A
1A
EE
23
46
46
F7
E9
A7
CA
B4
C3
E7
BB
72
C4
FC
16
1B
2F
DD
63
AF
97
43
E3
31
43
21
5B
D3
3E
3A
76
83
E5
F7
4B
FE
8C
27
35
88
90
1F
A4
99
78
D8
6C
26
CC
71
29
94
A2
D1
3E
92
97
D3
B7
AF
5C
13
48
CB
77
14
74
87
6B
8F
B6
AB
74
A0
3D
EA
37
65
90
5B
38
BE
7D
C0
53
08
5C
42
A1
F5
F5
12
B1
03
98
9D
C0
F0
3C
90
CF
4D
9A
37
25
88
FD
8C
09
5D
1A
46
4D
C9
62
82
30
6C
10
3A
E1
24
FC
CE
ED
79
7B
FD
82
A4
2D
B2
22
18
8B
84
65
55
3E
88
90
C4
D6
E6
AE
66
98
1B
57
39
17
48
8F
A5
1A
BB
1B
39
94
F3
C5
C7
56
65
A8
57
97
32
D1
EB
92
D8
17
BE
C9
CB
6C
56
4C
C8
40
55
FD
D4
25
3E
AC
7F
94
70
90
DA
8D
7A
CB
2C
2D
3C
B3
59
B3
C3
7A
6E
5D
FA
0F
BC
F4
26
5B
CC
07
37
AA
94
DE
33
2B
48
93
13
83
58
BD
FC
E4
DF
10
4A
AC
D7
DA
B7
C4
40
AF
31
22
13
F4
92
6D
D8
55
73
87
FD
C0
46
A1
0F
48
5A
83
A6
6F
66
F0
A8
1D
3B
C4
CB
9E
A9
3F
C5
E3
D1
3B
F9
2D
37
D7
55
1A
A7
37
72
A1
50
AD
04
E9
08
13
8C
1B
9D
77
1A
BE
4D
7D
C5
6F
85
BC
3C
1B
E1
E6
D5
D7
E5
D2
E8
6E
AC
FB
2C
39
CA
7F
6F
B8
F8
A4
BE
78
9F
A7
E4
C8
D1
73
3E
83
1C
3F
92
27
0D
42
08
E7
F0
88
54
21
C7
6B
B2
BC
BB
36
8C
E2
AC
68
77
C2
D4
47
47
F1
31
28
DB
76
A0
E9
20
99
A3
07
A3
5E
68
A2
A5
12
79
74
4D
39
8D
2B
D0
5B
9F
0D
6E
C2
07
F6
81
13
9D
C4
47
15
D9
F4
B0
4B
29
4B
B4
96
E6
6E
BB
6B
ED
44
01
E8
F0
83
8B
81
3B
E2
A2
AF
BD
02
2E
26
65
16
CA
4D
74
CC
BA
8D
5F
B5
4A
F1
D8
10
16
23
26
40
45
2B
8B
A0
57
98
F6
97
00
C0
B3
00
4C
69
DA
D3
17
40
19
5C
E7
E4
2B
12
EF
06
F9
A7
45
19
F3
C3
56
3E
EB
08
70
0B
52
3B
16
16
A7
3A
6D
77
BE
BC
4F
1C
94
CD
79
C1
43
3E
63
4B
2C
0F
48
ED
30
FC
A9
ED
E4
94
98
C0
73
B2
4F
2C
45
C0
5D
C9
38
E2
31
4A
FC
EF
70
75
17
62
66
E6
85
73
04
D0
C4
5E
1B
CB
72
A3
03
FE
1D
10
E2
11
00
E6
0A
B0
09
D3
46
E4
7E
3A
68
C7
EF
04
30
C5
C9
42
D2
53
00
2B
45
38
08
ED
3B
D7
2F
44
D2
71
BF
0C
9C
27
19
0F
FD
42
28
F5
73
66
8D
DA
38
4C
17
FC
B1
5B
0E
AD
6D
FB
EA
15
22
0B
FC
77
F4
B8
11
E2
61
97
62
A7
94
9A
FA
9B
8F
DF
FB
68
91
D3
96
E2
15
23
FD
16
0F
B4
BD
52
32
DE
38
85
AD
6F
AA
DF
49
45
4C
96
64
01
66
F0
C1
8F
5E
64
5B
ED
90
A0
60
98
9A
50
F0
11
EA
17
E7
13
81
40
FD
B4
34
7B
AE
A2
F3
F0
55
69
47
56
6D
1A
AB
15
2C
23
0C
F0
78
6C
A0
2C
80
5D
7B
14
54
9C
20
89
43
BA
CF
01
9A
DF
15
CC
32
7E
BB
C1
14
33
74
73
68
55
03
B7
63
D1
19
05
2D
AE
6E
4D
63
55
E3
CB
20
75
3E
04
F2
9E
CE
D9
AD
4A
FC
3E
55
A2
13
3C
03
19
34
D5
64
A7
9A
AC
AE
12
40
1E
27
7E
46
AC
34
94
B5
9D
86
3F
62
5A
1B
E1
94
28
1F
8B
57
CF
84
68
C6
C2
E5
47
C2
C1
6E
05
E1
41
DD
7F
E5
43
F3
04
72
5F
D3
E1
2F
02
96
1A
0D
D8
F5
C6
7E
3C
10
12
27
0C
0E
3A
57
CC
F1
79
B1
64
E0
18
EE
82
00
E7
38
5A
11
DD
9F
B7
4C
52
04
74
4D
B0
34
2A
5C
B7
AD
1E
E1
00
34
E4
EE
51
96
3D
42
DA
DC
C9
5E
98
71
EB
D9
AC
54
E7
CC
97
74
36
E3
5F
81
4D
34
FA
1B
62
D9
A8
5C
20
12
DC
1E
D3
06
BB
6D
1A
10
6C
E1
D6
A7
C3
42
C9
20
C9
C6
3C
3F
80
BC
92
6B
C7
72
3A
E8
E9
3E
7F
59
CB
DE
6C
C6
DC
44
D6
9F
92
11
D2
2C
11
24
0D
97
65
6C
13
F8
A8
AE
E5
29
61
E1
6C
64
17
E6
FE
45
5E
6C
9F
A1
02
B0
23
BC
F7
62
DC
82
F6
A8
DF
8B
82
C6
5A
35
2F
FB
85
FD
DF
0E
F5
C9
5B
5E
19
CF
47
F3
C4
E3
DD
5A
B0
9B
44
9F
41
1D
AA
55
2C
B8
E3
E2
96
34
ED
C4
82
87
26
AA
03
A3
DF
5A
6A
2E
D5
EE
3A
09
D1
B8
F7
DA
0D
5D
BD
2F
A1
78
92
8D
C3
9E
8B
0B
E3
4E
8E
64
DD
0C
D8
A3
0C
D8
72
22
9D
DB
31
E4
3C
4E
A6
44
B5
61
1B
01
D4
A2
72
82
AC
57
04
90
57
08
CD
8A
DC
41
90
D0
01
D0
A8
EF
A8
54
D0
5C
B5
2A
62
47
D4
7B
79
45
7D
FD
06
1A
39
B7
65
D6
C9
61
E9
C6
BC
D6
82
2D
9E
61
DA
F4
16
D0
88
12
72
77
B2
15
67
95
CF
1F
60
D7
B8
0A
D3
DD
6E
6C
A0
BE
08
D1
2E
C6
81
D0
DE
FA
C9
A3
89
96
89
40
61
36
EC
81
55
ED
20
1F
10
79
E7
8E
C1
57
86
91
C9
CD
FD
A1
1C
8E
DC
C4
8E
80
28
FB
6A
B4
F3
F1
09
9A
BD
10
9D
F3
73
D8
FB
BE
9D
20
22
6C
C0
C3
B6
11
27
DE
A0
DD
CD
B9
CD
64
2A
DE
1C
D2
FA
23
4A
88
72
7D
25
66
A9
03
83
9A
78
75
FD
46
C2
65
18
9C
B8
6D
75
B2
0E
3F
7C
A9
7E
76
CC
93
CE
68
17
0F
6C
45
64
E2
00
F5
E7
C5
D0
B9
5B
1B
73
7B
14
B0
F3
03
EE
3F
19
34
6B
97
42
EE
40
EA
26
C7
48
11
31
E2
BE
12
AE
94
24
4A
8B
AE
5D
D7
66
FD
DD
8E
14
E0
6A
F4
B3
97
FD
5C
5E
BF
91
F5
47
0C
2F
61
C9
F5
07
64
DB
50
1F
2A
83
86
29
95
5B
74
B5
26
0E
44
9C
01
CF
A5
5A
CE
7E
60
85
8E
B0
8E
48
9D
AB
CC
E4
2B
A0
BE
C2
21
06
12
97
A2
A6
06
8F
7B
A1
24
82
F1
86
1F
CE
BE
DC
B0
8F
45
60
97
F7
FA
96
7D
CC
D9
2F
B8
F8
CB
86
5F
70
23
D4
32
5E
7D
20
40
A8
60
B5
30
4A
8F
0A
D5
50
EC
AE
55
24
D9
C5
07
32
6B
5B
0E
9E
BA
3B
1F
AE
78
6C
C0
DE
49
C1
72
C0
C2
20
19
AD
5C
E7
E8
51
BA
57
97
E2
9C
5D
38
DB
93
DC
A7
C8
D3
EB
81
60
12
36
63
2D
8D
BB
91
DB
6D
D8
A5
CA
89
3D
FC
0D
EF
FE
53
8E
8A
1E
58
F7
CA
97
0E
C3
01
76
5A
6D
25
87
E3
AF
9A
C9
82
B3
EE
61
AE
97
AA
FC
70
C0
1F
22
F1
14
55
2D
B3
4C
4C
5D
ED
7A
29
01
02
24
2C
AD
E9
F7
3E
07
44
C4
7D
99
B2
C7
43
70
32
49
2C
84
1F
8C
D8
E2
F6
05
58
1D
78
CF
EF
8D
B6
0D
93
24
81
E9
CA
1E
08
4F
7D
63
98
CD
86
E5
4A
47
5C
1C
72
27
4D
BD
1A
16
8A
DA
7D
39
E8
A3
14
A7
0A
61
59
5D
E4
13
26
36
5B
35
3A
F9
EF
B4
25
03
78
68
E8
33
CC
37
38
F8
17
8E
90
E8
EC
34
31
3D
40
A9
32
F4
CC
33
AB
64
5D
4E
6E
3F
0C
84
96
04
57
7E
27
70
22
50
70
CF
00
20
CE
EE
FB
D6
8C
A8
D3
1F
0A
3E
5D
C0
32
A7
DF
54
DC
E7
F5
E2
F2
02
13
40
A9
2D
EB
5A
AC
89
05
B9
B9
DF
B6
55
ED
A2
51
2E
97
E5
76
E9
AE
CC
C8
8B
92
3D
79
23
CC
A8
BD
CD
39
9E
F3
A3
E3
AE
38
60
57
64
67
B9
00
BB
F4
FC
95
DA
54
2C
79
65
7C
81
D3
C6
CB
D1
C8
B7
9A
3E
F9
2F
FC
A9
5F
4B
6D
4B
7C
89
28
47
38
86
FC
F1
5D
30
64
52
07
4D
70
E1
36
44
66
6E
94
BF
BB
AC
63
9B
00
49
89
03
7C
13
AA
10
E7
ED
F6
A3
FE
3B
21
DB
FD
49
00
5B
05
87
53
FA
60
8B
06
E2
E6
D0
32
72
B8
CA
A6
E5
DE
80
7D
3F
02
82
6A
E8
C5
A6
1B
C7
87
A9
2F
37
56
61
F6
03
80
C5
26
E1
AD
3C
2A
D7
8E
F9
2E
40
03
D7
D5
AB
95
2F
46
C3
48
09
CD
63
2D
06
77
7B
DD
47
E3
07
94
8D
1F
DB
48
5D
74
75
80
1F
E9
A8
7F
DE
1C
5A
77
7F
62
E2
26
8F
39
18
6F
90
DB
C8
00
53
AA
AF
51
29
49
7B
21
4B
FC
0F
9F
C3
30
E7
8F
03
E9
E9
30
F6
4F
19
4C
99
BB
A5
2F
43
A6
DF
69
68
FA
D1
85
05
CD
C4
22
FA
3A
D0
91
40
0A
B3
0F
DC
51
71
F0
9C
A8
AC
82
9C
B3
05
91
E1
75
E4
53
2F
19
2C
C1
12
D7
8A
3A
42
97
62
35
BF
FE
AE
4A
5D
9E
04
39
0E
E3
18
CD
47
6F
4C
74
7D
9F
9C
C1
0B
B3
DD
0A
AC
6B
E1
D2
80
F1
4F
6B
F4
DB
CA
8E
F9
05
F7
5B
9E
09
58
9D
A1
A7
76
E0
3D
84
8D
DF
7F
65
AB
4F
2F
0F
FB
CA
00
06
E8
96
BE
09
B8
AF
30
49
B0
B5
A3
60
C1
AB
8D
4A
3C
80
2F
6C
C1
1E
2A
79
D6
2C
77
91
38
54
59
BF
54
06
6E
BB
75
E3
38
71
BB
8F
2B
0F
EE
F4
50
19
65
87
6F
C0
5E
2F
B3
3B
C5
0F
D2
52
7F
80
9B
B3
B5
6B
72
A7
07
AD
F8
DF
34
F0
5B
96
9F
EA
59
4F
5A
3E
74
83
33
53
86
2B
2A
AF
D0
A5
E3
D4
C4
D6
36
34
C3
48
BE
D1
82
D4
90
C6
DB
B1
9A
C3
A0
2E
A7
04
34
49
1F
6B
25
7E
01
41
25
D7
F9
40
DA
83
DD
1A
EE
53
46
97
EC
6D
AF
57
18
E4
81
48
44
22
F9
8B
26
46
05
72
48
8F
1A
39
F1
E0
DF
D6
82
A6
2C
EE
2B
9E
A6
7E
66
57
DF
65
36
19
88
8B
77
C4
D3
D0
5E
93
26
E5
6E
AA
A3
50
14
02
47
45
F6
5C
9D
93
93
83
B4
66
09
28
C2
3F
59
2F
CC
41
71
A5
30
97
66
65
CB
59
60
84
29
78
22
25
EF
D4
2E
F2
77
70
B7
49
35
44
55
0B
D7
2A
97
78
E9
3D
EE
D3
93
B6
9F
49
1E
4B
DE
BB
FC
55
AA
36
14
4F
43
7D
F3
DE
33
6A
72
98
FC
E0
62
5A
7E
46
46
E2
AA
1A
DD
04
08
EA
EA
C3
3F
E1
53
04
6D
24
4F
A8
9C
0D
AB
9A
F4
64
EB
6C
6D
0F
12
2F
91
CE
BE
6E
BE
6B
1C
21
9B
10
D6
ED
98
17
50
B4
B6
F9
87
B1
C0
D4
6B
07
88
AB
82
82
15
1E
20
8E
6E
D2
A1
B2
B2
91
F8
ED
53
B1
0A
63
CD
95
E7
F0
92
96
F2
F4
8C
E8
7D
29
13
37
D4
AC
9C
54
7C
90
D0
5D
8A
E0
AA
AA
61
02
47
8C
38
DB
FB
3B
91
12
01
AF
9E
B0
DC
F3
BE
90
E3
EE
B4
B4
F7
0B
CC
2C
FD
42
4E
11
EC
15
A7
CE
13
7A
F0
13
6E
54
B0
4D
90
06
08
44
21
F6
05
E4
97
16
04
07
E1
D6
B8
BE
69
CD
D5
04
9D
4A
A6
B0
1B
1F
A4
6B
97
29
37
A5
CB
46
AF
3E
0E
A8
58
42
A1
CD
57
63
45
93
20
B0
51
E5
67
2C
1D
14
58
90
00
15
CA
D4
32
28
A6
A9
25
22
87
A2
74
ED
34
13
A4
D9
DB
D0
1F
C5
04
22
96
D1
54
D8
34
31
18
C0
C6
B1
62
6B
F4
F1
F7
48
C5
DF
17
11
A8
A2
A7
79
DB
76
E2
B6
31
A8
EA
AB
AC
30
D7
6F
A3
BF
6D
A1
ED
01
4D
67
BE
34
85
A9
51
49
0B
07
AA
46
63
F9
36
A2
D9
02
68
53
41
56
1F
70
B7
43
6B
CE
D4
7A
81
DA
7D
20
EA
D3
77
E4
96
93
9D
AB
71
CC
82
AD
4E
B0
93
61
E8
8F
3D
BD
CE
11
B0
89
E7
E2
F3
62
48
44
4A
B3
EF
25
DE
58
42
5A
99
98
4C
8B
6E
D8
2C
B3
D3
3A
2D
79
9A
52
8A
9F
9D
07
7F
00
65
B1
B1
99
32
DC
C9
21
6D
9E
94
79
9F
9D
ED
B2
DD
73
AD
35
F3
25
C5
4C
C8
E2
D1
42
71
1D
19
51
EE
20
52
E3
24
9A
31
4D
5F
C7
4C
00
6A
35
30
42
FE
04
8B
06
AC
F9
AA
3E
5E
A3
F6
4F
7C
11
5D
D3
A3
82
8E
F1
1C
61
DF
50
63
C8
24
55
80
7E
99
DA
5B
2E
21
61
B0
81
CF
EC
C6
51
A4
E1
47
BF
AB
C8
02
4E
AC
B4
C6
B0
32
3D
0A
D8
55
11
D4
9B
5D
28
61
45
F7
F8
E4
8B
A1
E4
93
F9
91
E9
5C
CA
8F
36
86
0F
83
25
3B
54
0B
7F
40
8E
7A
77
3D
C0
88
1B
CB
E8
85
DB
94
83
4C
09
C7
6E
F6
FC
AF
07
F9
6D
57
DE
74
09
3F
24
82
95
43
7F
4C
1F
5D
90
AE
D7
FA
7D
D5
F1
B6
63
7F
F7
00
9F
0E
37
E3
35
54
36
3A
AA
C6
4A
1F
39
F3
EC
7B
7F
5F
9E
C6
69
AA
44
1C
C0
35
C2
9E
18
20
D2
82
15
26
CC
49
5B
C7
2C
39
73
08
94
D1
98
8C
75
8F
E8
5F
1F
21
59
92
20
EE
B3
01
9F
26
CA
B5
53
2D
60
A1
90
DA
AE
11
D9
17
9E
DD
D9
FC
CC
68
C0
5E
4A
A9
94
AF
91
7D
34
9A
7C
44
AA
18
5C
E3
A1
5F
DD
B7
92
3B
4B
4B
49
C6
EC
C6
42
08
9C
22
BA
B3
89
E6
37
96
73
1A
9B
17
43
90
E4
F8
F1
3D
2C
96
71
57
14
B2
34
84
20
52
D6
15
2D
1B
C2
FC
B3
81
E7
23
A7
F1
76
AC
DB
E3
01
82
24
35
0F
ED
11
C1
7E
26
43
76
E2
06
32
57
7F
A5
8F
17
95
7E
AC
C4
DE
6D
66
C7
F0
E7
4C
B3
DF
3D
62
19
B7
D4
00
21
10
54
C0
EF
DB
49
21
2E
DE
6D
A0
7B
1A
13
6A
F3
11
FA
71
B9
26
69
B4
3B
02
C1
09
9D
25
6E
B2
5F
D6
87
3E
F8
FD
F4
33
D0
5E
E1
D1
64
AF
BC
59
28
85
BB
53
65
1A
9A
93
EA
D5
8A
3A
97
4B
63
8D
91
30
32
58
65
5D
0F
9F
9C
93
B5
64
4A
59
14
1F
61
D5
50
E7
43
81
F3
47
A4
76
23
29
26
35
62
E1
7D
89
9E
0A
64
7A
0F
1B
BA
22
EC
0A
AC
D9
F8
89
17
9C
07
6B
D5
06
7C
6F
B8
5F
5B
30
49
5D
40
D7
BB
2D
5F
1B
0F
C7
B4
3A
56
69
CE
09
A2
7B
C7
47
4D
AA
06
14
FB
CD
00
D2
86
7E
ED
E6
7B
1B
E7
C4
5E
C6
B0
7A
06
36
5F
C6
5B
26
02
40
B4
80
12
6B
F8
A7
D5
96
0F
53
95
59
62
8F
3A
72
20
1C
78
4A
61
9C
D2
1C
8B
D1
36
B9
E1
5B
B0
EB
EC
00
D4
5D
15
57
F2
88
AC
BB
88
1D
FB
37
6C
A0
C0
CB
8A
CA
D5
FD
51
B0
CD
E7
F1
80
2E
DE
26
2A
21
41
B6
46
BB
F6
09
8B
8D
25
FA
DC
47
C5
19
E6
E7
15
4E
FA
A3
F1
AF
C4
1C
DF
96
F2
6A
D4
9C
1C
01
F3
18
9E
31
13
9A
B4
DC
42
83
E3
7C
80
C7
30
CA
5E
B0
32
95
72
82
7C
10
B2
0B
4D
43
D8
A1
85
47
F3
3E
B1
8C
F9
05
D5
39
E3
A0
48
A6
1F
CB
8C
E3
5F
0A
F6
68
F5
7A
89
21
50
7E
82
A4
F8
45
55
33
9A
2F
B1
51
AF
2F
7C
37
98
01
B5
F3
91
92
DC
5E
48
92
FE
DA
3C
07
17
09
3E
F4
C9
37
0D
0D
2C
B9
46
DA
F9
11
BB
F8
C5
5C
3C
B1
B6
F5
49
32
2D
E6
E6
EC
D0
10
6C
0D
FE
72
C9
A4
84
B9
F7
80
3F
23
65
09
2D
8C
2E
C2
9B
8E
E7
E2
AE
26
AC
E9
47
41
B1
1E
64
F0
20
61
F4
D5
58
52
EC
29
38
F0
56
BE
29
D9
68
5D
27
E4
A7
9D
AE
8C
C9
03
58
E1
E2
3E
07
4B
23
6F
A3
A2
45
4E
B9
AD
5F
D1
43
13
6F
A4
C8
32
21
65
26
11
5D
0C
CF
46
94
99
87
40
51
54
54
ED
B3
74
AE
A1
2F
F6
8D
6C
98
2D
A1
BC
C1
7E
F7
60
F3
E9
9E
A1
EF
64
B5
C3
3E
FD
F1
65
F0
BC
30
51
3D
5C
4C
61
C5
05
20
79
69
FC
D8
40
1E
DB
80
38
42
BE
AB
05
9F
AE
87
7F
98
7B
75
AE
AA
45
A3
06
CB
CC
0A
4A
D6
D2
D7
45
D2
3D
47
10
8C
D4
90
24
8D
74
04
93
1A
04
34
CB
AD
C6
D8
5E
28
69
8C
E6
CA
AD
5F
82
05
23
B8
4B
A3
9B
DF
A3
9C
22
27
2A
18
C9
13
7A
88
8E
42
75
25
AC
B8
AA
89
AA
41
95
03
EB
5E
00
5C
A0
EC
2D
87
36
8B
0E
48
BC
BD
48
34
C8
A1
0E
A1
3E
08
60
74
1C
58
0C
53
D1
0A
A3
E1
F6
D0
8E
05
F2
BC
77
79
1A
0F
D4
41
E1
2E
07
5C
DA
E9
23
E7
6A
33
9E
6B
62
E0
DB
8A
29
E5
2E
53
24
14
8E
58
0C
DC
E0
1B
D6
9E
14
9A
73
63
85
BE
DF
9A
C3
5D
56
51
6F
C5
29
C7
F4
52
49
7E
0D
88
69
FC
64
38
E7
4A
C5
D8
64
F2
34
3E
98
87
8E
60
04
B6
84
6C
4D
9D
6B
9F
2B
6A
F4
2B
30
58
72
71
4D
08
CC
76
1D
ED
D1
EA
86
BA
F8
19
AC
2C
E7
E5
9C
36
BA
E8
33
85
46
72
A3
2C
68
CC
15
7A
43
84
45
CB
DA
80
95
01
1C
E1
1B
11
80
25
02
AD
13
E1
F2
60
BE
E7
BB
A4
86
2C
A6
E4
73
62
75
B6
72
44
1F
23
9F
1A
AC
0A
F7
14
11
8E
7B
91
4E
D8
E1
BA
35
96
0C
B7
64
2B
DB
8B
97
C8
CA
00
A6
2E
82
C3
6B
06
E9
7F
C4
8F
80
10
16
70
57
2B
AD
A6
1A
3E
C2
05
ED
0F
DE
E4
73
7C
F0
B7
8E
DD
F6
F1
27
6E
FB
8E
3B
70
58
82
CC
69
A6
53
C7
5E
A0
A2
B1
48
D7
9B
B8
1C
97
8B
B0
FB
29
96
35
78
4D
EB
3C
76
7C
C8
12
BF
F1
DC
0E
A6
8D
10
45
B6
6C
8C
17
A9
E1
B0
80
3C
9D
77
30
49
52
62
43
7A
85
8E
70
70
DB
E2
10
D0
BE
E8
DB
03
B7
22
13
F7
08
22
53
B9
08
40
CC
6C
7C
96
24
33
0A
62
BE
2E
05
33
07
A5
9D
A0
D9
B0
08
2E
F9
64
68
D5
0E
A6
61
B3
85
C8
2F
3C
52
98
DB
B3
91
11
BA
73
EE
BB
A6
F8
7B
77
35
30
64
6B
44
36
37
D2
F4
18
07
78
36
26
15
EE
CF
11
25
AE
23
74
7F
53
43
28
F3
CD
07
23
9C
D3
E6
6D
16
19
9E
38
94
ED
81
93
A0
9E
EB
1A
9C
14
9E
95
B2
6B
DA
B2
30
F5
2D
F6
4C
DB
08
73
69
16
98
C0
9B
03
04
5C
79
10
B0
34
F2
18
66
A0
31
ED
53
42
BF
48
1B
6D
59
EF
5E
62
36
D0
13
C7
79
A0
E9
F6
D7
E4
4B
22
2B
3B
96
29
D5
AB
E3
34
6C
22
42
E3
6F
04
4F
8D
D8
8D
CF
53
3C
73
9B
9A
29
EE
EB
AE
79
33
4C
9F
C4
9F
95
86
C0
84
40
D0
9E
74
A2
AF
B1
CB
07
DC
9F
23
02
CE
6D
87
5B
99
4A
BF
4D
42
63
EA
FE
C2
1B
DC
E8
91
53
67
B4
47
8F
3C
8B
E9
8A
D3
8B
8C
9E
1D
35
95
56
D0
06
72
3A
BE
CA
C1
E9
BF
D4
F1
F6
C3
4F
E1
95
A3
E1
0C
DD
A5
1D
18
94
34
78
81
94
FC
9F
96
C9
C0
1A
F8
49
69
6C
D4
05
1D
5D
B2
CB
9E
9A
53
A4
2D
57
E2
39
A7
26
0C
0E
73
BC
4F
A7
0D
01
4B
69
73
29
BB
FD
AC
E9
11
6D
80
4C
34
AD
62
E2
DD
6F
0F
5A
4A
94
9C
E8
AA
86
99
6A
5A
CF
D7
74
F3
80
DC
6B
EF
F4
D4
DF
E9
8B
21
7E
14
18
C3
32
4C
23
13
5A
9C
3A
86
01
16
7C
43
54
1F
63
50
0B
56
1C
EF
B1
B7
A4
68
E9
4D
34
0D
AE
B8
E0
7F
7F
91
E8
C6
8D
9E
B1
36
E1
E8
3F
7D
06
C0
CB
55
92
9C
94
38
86
66
8B
57
25
B5
5F
F5
3F
EB
FE
E5
09
E6
66
34
D0
D6
9C
D2
A9
62
40
7B
5A
4C
EF
10
93
2D
E7
F3
14
48
EC
2E
B4
86
F4
C3
87
CA
57
9B
51
71
39
83
92
52
5C
DF
9F
2C
C3
A6
2F
06
9A
E3
38
FB
4E
57
9C
E8
8F
42
8F
CE
D4
71
52
90
20
5F
22
2E
AC
77
3E
6E
F2
42
EB
DB
0A
7F
84
E5
E8
6F
83
8E
C7
64
68
70
40
0A
46
55
F6
EC
E3
1B
04
36
20
6A
A8
50
D5
32
05
67
E9
F1
5D
67
B2
91
D4
B6
38
0B
88
BA
C8
71
3B
82
DC
52
F1
71
F8
68
D5
7E
53
EC
01
3C
A4
99
D0
D7
08
C2
38
30
D6
6C
40
8C
30
84
C1
EE
C1
8C
20
2B
17
D5
3D
76
BA
CA
80
E8
C1
AA
66
60
66
D6
85
AD
26
9B
F4
E7
D3
61
86
BB
EE
6C
9C
B6
DE
E5
AC
B7
2C
BB
4A
6E
7D
FB
8F
65
FC
F9
77
39
23
D5
08
F9
0C
9A
92
AD
B4
C8
38
93
B1
B2
B0
87
3A
2F
47
52
38
E4
B7
34
40
56
3A
C7
95
24
41
11
30
52
D0
E5
22
74
9A
92
48
B8
F4
CE
46
0D
69
E7
E0
38
B8
39
AB
9F
A2
4D
57
69
D8
C6
DB
F5
A4
D5
C0
3B
17
DF
41
DC
DD
56
3E
F6
DD
AD
88
1C
11
31
C2
85
5A
8E
12
50
B5
6C
CC
6D
3E
59
BC
1D
F3
90
9F
CA
36
C1
ED
E0
87
42
B9
EB
F3
B7
6B
BE
55
8D
EB
1C
D6
32
DB
DA
CF
DF
71
88
5A
5F
E8
BD
B9
B7
B2
1D
2E
CE
A0
14
44
4B
2F
67
0C
FB
73
F6
94
C3
B7
76
C3
3A
55
C6
E8
71
1E
54
B9
0D
A3
40
FE
02
62
75
03
D7
17
63
DD
F0
A9
86
17
83
3E
E0
7E
6B
16
34
39
DF
85
2F
D6
4F
D2
88
F6
7A
7B
B5
41
0D
D7
50
16
C7
93
BF
7E
4E
03
56
8C
CD
E9
CE
C8
E0
25
4A
47
00
F9
68
33
EC
A4
08
DB
7C
A6
01
2A
06
EA
4C
B2
40
B6
00
34
35
65
EE
79
4F
5F
58
C1
AC
E9
6A
AA
14
CF
33
49
BA
A1
93
F2
61
7B
67
03
12
3A
F6
66
41
DC
B3
29
1B
69
7E
9F
63
5E
DB
4C
8D
C6
3C
2C
28
0A
0D
89
56
57
42
D7
C9
64
FC
2F
7B
16
6C
98
B7
77
4B
03
26
94
87
39
43
BA
18
0B
E2
9C
A4
E5
C6
C5
7C
78
7D
EB
FE
A4
68
8F
A1
5B
13
78
3C
09
03
EB
74
20
37
AB
5D
C8
05
E3
45
E7
90
BB
6B
8E
86
AB
6E
4C
08
C3
F3
AC
54
FE
49
8E
1C
3C
C8
38
83
A4
ED
7A
DF
5B
B8
CE
99
AD
63
83
83
D5
98
CC
66
38
79
C9
DF
E0
F8
27
36
A5
CC
BF
53
09
69
38
31
18
9F
BD
91
16
0E
CA
3D
CA
27
A3
74
28
BA
68
32
4B
7D
8F
4A
C3
8D
96
98
92
61
7E
52
E8
83
FD
5C
17
5B
40
85
5E
A2
C1
4F
5B
6A
F9
0C
3E
AA
5F
24
DD
AC
98
95
67
B5
58
93
B8
0E
EF
DA
0A
8F
08
14
3D
AB
4D
59
17
AE
2B
77
2E
35
5C
4A
B8
04
F0
79
0D
DB
38
21
CF
BE
08
2D
49
2E
3B
F5
81
59
80
32
F8
4A
D1
25
68
F7
A7
37
9B
30
30
8C
8A
6B
1B
0A
BE
AC
AC
C9
48
E7
3E
17
31
DD
B0
83
D2
1C
86
63
BB
3C
23
9C
C7
4E
04
F4
8D
E7
F4
47
3E
A9
AC
5A
F7
43
9B
E5
2F
EE
12
D6
48
05
44
04
E8
A8
9A
F1
83
9C
25
0D
4F
50
28
E4
6A
44
77
95
9A
46
2E
55
EF
34
A0
9E
3B
9C
43
BD
23
80
9E
1A
ED
FD
E1
03
FD
83
2E
E9
60
67
DF
23
B1
48
EE
B5
E0
18
0A
E9
44
4F
63
C8
07
86
E3
F0
C1
76
4B
CB
A2
06
9E
90
C0
9D
16
13
AA
65
5B
EC
57
0E
F7
62
54
7F
1A
1F
79
D6
39
12
9C
FA
C1
8B
F2
2D
84
F0
A6
24
87
EC
26
C3
77
A5
BA
00
0B
DC
4A
68
70
EF
58
8A
D4
12
B8
9F
54
B8
43
AE
FC
F9
58
22
56
1A
05
99
C5
1E
96
F6
A4
6B
29
CC
C7
0E
09
5B
69
46
E1
78
5D
54
A3
B3
CD
DF
C4
26
D8
A9
45
95
E4
DF
E7
E9
42
2E
9C
F6
21
BB
69
31
D5
3F
EE
42
7F
7E
E4
55
E7
CD
66
40
65
E3
24
B6
D6
51
63
06
CB
7C
8C
8A
C2
00
4E
62
89
F1
FC
9D
D0
B3
80
50
A5
21
4E
8B
71
A8
32
93
9F
9B
11
83
4B
E3
51
9E
D0
5E
B5
AF
0D
97
EB
9F
C6
B7
2D
B5
F9
80
51
BB
23
B7
7E
00
DA
89
63
5E
BE
D9
D0
CD
4F
8C
25
37
A0
12
7A
51
8F
30
0B
BF
ED
5B
49
28
96
9F
F2
B0
0E
C9
3F
AF
2A
9C
0E
65
8D
10
1B
9C
5E
B9
4B
C2
BA
78
7D
A4
3C
F3
78
F8
C0
F0
83
15
25
6C
AB
1C
95
0D
49
39
4E
B0
0D
51
B6
0D
10
45
8D
62
A9
B0
4C
0F
59
BD
DB
B0
23
8F
9C
6B
5E
E5
B0
6B
E6
8D
C8
2C
BB
37
59
A4
51
C7
85
E4
A7
05
C4
3E
96
C2
5D
B7
5C
C1
06
12
D5
F1
15
82
4C
65
86
43
30
DD
79
8D
B2
D4
61
48
1B
83
AC
11
73
BE
A1
A0
94
AB
0C
95
C9
3C
A8
CD
9B
C5
A8
96
1A
6E
AC
FC
7E
DE
A3
A8
02
2F
90
21
79
38
87
D1
D3
2F
CD
B2
37
4E
C2
F5
52
41
76
30
3B
A7
3A
BF
E2
C3
9C
41
8B
C0
A9
5C
0B
FC
4A
8D
29
37
34
2C
E9
58
83
04
33
BF
BA
96
EF
B6
1F
43
C9
6C
A8
52
E9
F3
A1
9D
63
D3
C0
F5
AB
B3
59
52
4E
78
3F
8D
EF
99
66
3C
F2
93
EF
66
C8
A9
1E
E9
3E
2B
1E
D6
F0
00
02
BC
F3
93
58
A3
43
75
82
15
A7
C3
64
C7
7D
57
3E
38
69
6D
D6
AD
05
60
13
F4
37
AC
AB
54
8E
D6
10
F6
3B
6F
4F
A0
66
FE
6D
79
10
6B
4A
5B
54
DC
C3
7D
57
62
B5
19
23
76
6E
1D
1B
DE
3B
5C
91
1D
37
F9
4E
4E
5C
79
81
29
7C
75
94
FE
E9
6C
8D
F4
B8
89
D7
D6
CC
7E
D3
C8
5F
F9
36
BE
A6
22
17
7E
5E
21
CF
A8
8B
1C
C1
84
27
4B
B0
74
F1
43
E7
38
66
9A
B2
A6
3A
A1
19
A1
F7
B1
FC
9B
0F
A7
2B
2C
D3
5A
A3
99
66
66
DB
C9
68
7D
A4
46
7F
96
B5
9D
97
E6
2C
E0
35
95
8D
64
5D
4B
46
E9
D7
CF
DE
77
94
87
02
48
77
B2
B9
4B
0F
17
DE
01
39
1D
27
B0
1B
69
13
F6
D0
ED
04
A8
FE
C0
08
BB
7A
CF
28
67
5E
41
29
D4
5A
3E
82
81
4D
53
EF
EE
52
52
15
7F
40
3F
87
E5
64
83
53
63
97
C8
1E
20
DB
DF
6C
EC
7E
08
6D
2D
F9
26
56
F2
8F
D2
78
EF
ED
F5
50
C1
8E
6D
04
D1
58
99
05
1C
44
63
3C
2A
27
AF
D2
4A
C8
82
5E
59
7E
BC
18
07
E1
60
55
B7
A3
2F
79
F4
F3
57
1F
69
AA
6F
E3
5F
3D
BF
13
22
F0
97
7E
BF
64
AA
89
A2
E4
34
34
BC
71
9A
C1
24
8E
A4
F9
27
EB
2F
DD
E7
78
B6
A1
2F
BF
75
F7
FC
21
61
32
4D
85
43
96
9B
F0
F3
AB
66
0B
D1
FA
EB
CC
42
9D
F6
12
57
D2
C5
52
13
44
BC
28
75
8A
18
8E
8B
56
7E
EB
B7
28
12
EB
3D
E2
53
6A
DE
C1
4B
51
24
6E
2E
E4
7B
FB
B6
E9
07
12
95
51
9F
56
4F
27
D1
26
4A
60
1C
E2
F2
43
76
90
96
C8
29
45
45
57
72
6B
72
49
7B
50
17
0E
4C
7D
5E
9B
34
C6
F0
2F
2A
68
95
42
36
43
FC
DF
8F
57
58
A9
11
0B
FB
4C
C4
1C
74
78
A2
62
AD
07
DC
31
B2
FB
80
96
EE
2E
29
3C
3D
25
84
3E
03
4B
EE
1B
E1
8F
5B
7E
D1
59
9D
90
38
7B
B5
4F
0E
1A
3F
44
C5
69
54
53
0E
78
6E
2B
3A
73
F4
6C
E2
D5
99
66
E0
A8
1A
B0
59
57
D1
18
62
04
E2
63
3E
DB
0B
A1
A2
39
4B
CA
8D
75
D9
0B
87
A8
37
E0
0C
6B
DE
8F
C3
14
C0
B7
24
31
81
CE
B6
01
88
8B
5D
1F
4C
A4
55
D4
39
9D
07
C6
3F
E3
90
A8
B2
76
35
FB
42
CC
73
0F
71
1B
CC
10
E8
04
8F
5A
D1
E6
E1
77
B1
96
A2
D7
FA
8D
C1
EF
ED
75
07
7B
AB
A2
65
F2
08
30
3A
58
F1
49
13
23
66
C9
F2
79
AB
A2
75
9F
54
6F
52
B3
CA
48
54
42
5F
CA
C6
5F
81
53
BD
B9
94
BB
EE
92
1A
CE
7E
4B
38
B4
51
93
84
23
9D
90
0F
04
95
51
CD
06
FA
94
7C
C8
1B
5E
CC
BB
BD
40
0E
91
4B
04
D9
BC
18
BC
87
FA
4D
8D
BA
C8
C9
A2
20
85
FE
AB
AC
D1
A8
32
BE
60
02
0F
90
84
FB
DA
20
63
D4
A4
35
4B
0A
EE
9F
62
A9
65
A8
0D
8B
F3
D3
15
44
E2
5B
17
B9
1B
70
7F
23
CD
6E
28
19
AF
4F
7F
7B
20
67
8F
ED
EF
E8
02
E0
86
66
93
40
CA
41
51
BF
C1
61
89
03
42
72
A5
72
B0
F1
A8
7E
65
01
4A
EB
FD
5F
25
A6
C5
AF
9A
E9
E6
E1
88
1E
6C
05
3E
D4
B0
82
70
85
9B
8A
6D
9E
14
E7
58
FA
24
18
29
37
B2
1D
5C
B1
B3
01
AD
DA
2C
B0
34
56
B8
84
67
F4
14
65
EA
7B
89
96
9A
41
E3
C9
11
53
65
08
6D
DB
C9
A7
D3
3B
C8
40
A5
6E
DC
D5
9C
DE
13
B3
F3
F4
D0
69
7F
5F
D4
DC
60
CA
99
3E
35
B0
4A
A4
DB
D2
B3
BC
0A
B5
2F
40
A9
43
AD
B4
7C
30
D5
8E
4E
E2
3C
17
4E
45
A8
21
1E
F8
71
47
78
70
08
71
F3
81
53
09
F5
DF
3C
23
32
DF
C7
FE
D9
49
77
3A
15
E1
C9
80
8C
BF
2E
38
3F
36
28
ED
85
70
61
D5
B2
A6
4B
D1
EF
54
5D
86
DB
FC
D9
99
4C
02
38
42
A5
D2
5F
02
DC
3E
C4
6F
77
CE
CF
C0
09
8C
89
9D
F4
4E
4A
87
2B
0D
FE
B1
48
D6
2B
58
F6
4D
58
9B
0B
E8
AB
22
71
79
8F
32
99
34
B6
C9
61
B9
E4
1B
33
0D
57
CE
13
ED
07
72
9D
7F
85
8D
2F
A0
CC
2B
2A
EA
50
9D
70
8D
20
40
4E
AB
8D
F7
74
63
D3
89
FE
20
03
3F
AE
E4
81
5B
64
5B
13
F8
1B
49
AB
AC
6B
17
FE
A5
1A
0E
CB
24
12
2E
AF
5E
C9
38
36
A4
26
9C
9C
A2
45
86
A7
C8
B4
AB
66
B8
CE
F1
73
D1
F9
3E
FE
91
2F
44
7D
10
0B
13
A9
00
1C
98
AB
CD
C1
C4
B9
1D
43
12
9E
DF
1C
CB
07
CC
44
99
1A
6C
A9
F7
27
9A
7F
F8
94
7F
B9
73
1B
11
B5
0C
3B
A6
E0
7F
87
FD
08
C0
8D
9E
E6
46
E9
66
DE
7A
A7
F7
85
C9
58
7D
1B
7B
C9
BC
30
DF
53
FD
BD
A5
0D
65
D4
48
6D
C3
E8
90
CE
48
19
55
9D
5C
DC
A4
5F
99
F5
74
2B
96
4F
53
5E
F6
3B
17
22
19
66
43
B8
CA
22
25
03
D5
72
93
2E
4D
52
2F
0E
44
33
7F
7E
C4
44
6D
64
C6
4B
04
9B
1A
90
E3
00
10
07
9B
21
BB
29
A7
29
9D
D7
39
C8
AA
40
A0
D6
91
EA
4C
AB
DD
B8
54
44
E3
48
78
BB
3E
9D
83
CD
C7
84
90
32
4C
BB
B1
A1
47
6A
24
1F
B5
7E
2E
71
16
6F
F9
30
5A
9A
C7
57
95
E5
71
A6
BB
1F
AE
E6
1E
DD
46
82
D4
99
30
35
32
D2
3B
DC
F7
BC
E5
15
B7
66
58
95
D3
2E
7D
5F
61
92
2C
93
BE
F4
5C
63
40
2C
7E
01
A4
ED
FE
EF
AC
51
76
96
68
3D
BE
66
7D
23
B0
5A
95
82
AC
B0
89
B4
18
81
4E
C8
D7
AF
57
BA
3E
ED
0B
7E
06
3A
D3
0F
79
DE
74
9C
FC
4F
AD
3F
F2
15
7D
17
DF
9B
B9
FE
41
8F
AA
65
F5
58
D3
A7
67
50
9F
88
DC
65
85
A5
42
99
01
7D
FE
70
14
D9
33
F2
3E
AE
BE
53
BB
49
33
48
43
A0
DE
8A
64
9B
D0
CA
E3
6D
EB
5A
EF
0F
11
1D
EB
2B
BE
90
04
02
49
10
22
7D
8A
E9
E1
DC
18
9A
3A
C5
AA
68
5D
61
4E
C8
FA
3D
BA
AA
38
20
91
5E
F4
93
BC
6C
FA
0B
7F
A1
F5
39
39
B6
DC
44
F3
DD
0B
A3
5E
21
FC
69
3F
02
47
1B
18
60
7B
15
A9
DC
8E
ED
43
5A
3E
91
A4
E0
4F
B1
C5
48
63
0E
8A
91
5F
BB
1D
30
EA
B7
68
E6
50
09
82
B0
D1
6D
FE
4E
C3
E8
A3
B8
83
B6
82
D6
63
A0
A9
57
38
78
78
02
87
71
5E
EA
91
E5
03
1A
5C
B0
E4
62
4D
0C
45
AD
4D
61
35
BD
06
94
77
46
90
BE
DF
2B
B8
35
66
FE
15
A9
6C
DA
82
B6
C6
06
6A
04
29
89
55
96
37
36
F0
6C
8D
64
61
F2
E1
43
A8
88
EC
01
78
D2
B4
7A
A8
14
AD
97
71
3F
6C
B2
D6
B8
D3
3C
7D
E8
71
20
AC
24
5C
C0
79
0B
3C
7C
03
1D
49
4D
DF
0B
6E
0A
2A
A1
2E
EC
82
D9
EE
5A
3B
C0
BB
D9
20
D5
E4
4C
76
6B
62
F1
E6
44
28
DF
C2
3D
70
66
56
B6
79
FD
CC
E2
1D
97
36
14
E7
CB
F3
A6
D6
8C
FD
63
7A
F5
AE
F1
C1
14
57
5D
E4
A2
1C
3E
A6
34
66
7B
74
3E
76
FB
AB
CB
9E
F9
C7
BF
B4
DF
92
82
C0
8B
DA
CF
6A
63
4C
2D
DE
9C
25
D5
77
F1
3E
29
F4
E4
01
4F
6A
A9
CE
EB
82
1F
B9
AE
95
98
5C
94
35
50
B0
0A
F1
16
55
61
15
D3
AC
87
02
4E
F8
C8
C2
41
01
B3
63
CA
D6
DB
56
63
54
31
C7
BD
B3
4C
A5
CE
B6
23
F9
AD
5D
6D
E7
52
83
39
4F
E9
35
5F
B2
3D
88
1B
6A
74
74
C7
9B
66
61
25
D1
A5
9B
25
73
6C
EA
2E
A2
E0
15
6C
02
2B
2F
88
0E
7C
A8
49
72
07
50
CB
A3
26
D7
C7
C2
82
D7
6E
19
48
19
27
01
EC
01
84
A8
EF
C6
48
0F
77
D3
15
2B
85
7E
D7
4E
02
4A
90
06
D8
1F
47
06
CD
FC
A4
A9
1B
A5
C2
FC
9C
DC
B3
5D
51
8E
97
05
6A
B2
AB
30
1C
8F
13
DF
BA
D8
38
58
25
91
4D
0A
F2
D7
AC
22
15
CB
01
FC
A0
F5
22
76
9D
D4
D7
74
5F
EB
8A
D4
EC
2E
6C
4D
40
E2
77
99
EF
F1
F4
77
D9
40
86
C4
95
A2
02
EA
44
CC
A0
75
FD
B9
A5
65
A7
C2
9C
D4
6A
5E
62
39
50
EF
7F
5D
6E
97
55
95
4F
81
38
8B
93
D5
62
AF
14
55
24
A6
0D
A5
B4
14
8C
A6
18
07
DF
37
28
72
16
0F
55
8F
38
BE
F3
D6
49
0F
36
FE
71
C2
9D
97
F9
3D
ED
44
69
D8
8B
5F
56
64
E4
1A
36
A3
80
5A
87
82
53
53
14
30
76
63
95
77
BF
AD
D0
86
F2
78
D2
0E
B7
CC
B0
95
B9
B8
5B
19
0B
06
DB
ED
5D
1A
0A
1D
29
2A
04
A3
2F
24
11
EB
52
11
70
64
4E
39
8A
52
DF
41
B8
C1
80
EF
6B
B3
6C
F5
2B
9C
E6
2C
A8
8E
C6
B5
BB
16
1A
86
45
AF
CD
BB
CD
46
AD
EE
01
F7
F4
8E
DD
1F
09
BE
F6
F6
6A
7B
6B
0C
70
76
1A
0F
E6
72
9E
F8
DD
69
21
2C
DF
F3
30
47
1F
D8
62
B6
25
C0
7A
C3
1D
E9
61
CC
0D
D5
E5
77
A8
53
11
CB
DA
8D
A6
EA
82
51
C7
8B
82
5F
72
0D
8A
F6
1B
C3
57
B6
86
BC
D3
A5
BF
69
2D
D6
07
A7
3D
5A
CA
6D
0D
21
CA
6E
11
ED
66
33
50
7E
1F
9E
B5
2B
99
86
DD
AB
CE
00
49
00
6B
4E
85
50
E5
B3
F9
16
6F
68
A1
ED
4A
43
E3
DE
60
D7
0F
57
8B
CD
1B
D6
EE
EF
38
7E
90
A5
E1
E5
0D
D1
6D
BF
28
A4
7D
F8
B0
F8
A6
54
6F
4E
6C
11
C3
93
15
36
4D
F2
7E
73
D3
05
D1
A9
83
83
9F
BA
F3
2B
42
48
B6
3E
3F
A7
5A
82
EE
C1
70
D1
92
CD
4F
FE
29
F2
28
72
20
BB
0F
75
27
E2
F9
23
68
74
E5
4A
7D
4B
37
2B
4F
CF
50
25
C8
9E
21
B3
B9
29
45
82
C5
C0
55
29
6B
FC
27
1F
F8
92
58
6F
91
8D
11
66
60
83
27
95
BD
D8
E6
35
9F
0F
03
96
71
CB
EF
24
DC
C3
CD
B9
9D
86
C7
42
BC
37
7E
2B
C0
D8
54
AD
66
F0
51
4B
6A
DF
42
81
DF
5F
D0
20
54
D2
7E
B5
4E
11
1E
B3
2C
0E
E6
EB
85
7C
EA
8E
35
57
5D
26
83
EF
ED
5D
4F
16
2E
76
66
C5
6C
54
68
72
88
4D
EF
E0
F3
2E
09
A1
50
11
EE
CC
D8
31
EF
65
8A
9A
C6
A6
B2
18
E0
54
06
5E
98
03
C2
A4
C3
87
05
C9
29
92
43
2B
AC
E3
64
7F
FD
1F
FA
78
B4
5C
A4
E2
70
1C
FC
2A
E5
69
71
86
47
AE
F7
02
61
0E
05
42
BE
2D
32
31
86
61
0E
85
8D
43
85
64
00
4F
38
B9
A6
EA
96
74
5D
C4
65
D5
97
1D
4B
44
BF
24
5B
E0
BB
70
C1
5A
F2
C9
BB
36
E1
F8
52
E9
94
B8
1E
95
E6
98
02
22
0A
C1
18
0E
78
0A
50
D5
0D
E5
A1
C6
7E
C8
A9
FA
CC
94
06
45
F5
DF
36
81
B4
43
1D
0B
08
32
D3
81
8E
5B
77
83
88
05
71
8C
9B
AC
B5
D1
C7
C5
59
19
98
C5
8F
B2
47
CA
30
93
8A
1A
90
E4
3E
A9
04
87
BB
D1
0C
1B
3F
30
0E
9B
7E
0E
A5
E3
0D
3E
C4
8F
F4
EB
E0
EB
C1
3D
1B
29
C9
B1
C0
6F
BE
BF
81
05
AB
42
2E
79
01
20
77
58
B5
95
0D
1D
AC
C5
46
49
CD
A7
47
EB
88
BF
4D
44
9C
FD
60
29
53
16
9A
8F
8C
18
57
F7
A2
91
0F
89
55
A8
1E
E4
A1
E9
DD
ED
94
60
C6
AC
9E
96
C7
42
C4
3C
AF
BE
30
49
94
F0
06
B1
08
3A
54
4C
FB
C5
6D
9C
1C
09
2E
6E
B7
1D
06
E2
DD
50
33
0B
D5
55
41
36
E7
11
C6
6C
27
9C
59
2E
C3
B4
9A
67
27
9A
F4
BA
C2
D0
54
1D
C0
8E
78
77
E4
F0
6D
44
03
8F
25
C5
DB
6E
61
90
2A
B2
61
DD
64
20
E3
D4
34
3C
3B
8E
45
F5
2A
DD
7A
C1
B8
71
44
CC
46
0B
36
A6
D1
36
E4
57
27
CC
84
E0
68
1C
CC
B7
8C
22
01
C1
3C
AC
4E
11
59
2E
3A
F0
C5
2F
2D
F2
EB
05
D7
44
FC
74
AA
36
E8
15
6F
78
8D
D5
55
E8
60
AD
9D
F2
14
AF
62
5C
9C
D6
55
CF
14
DB
EB
14
05
C4
95
BF
1E
81
5F
EC
22
2D
DD
8F
A6
61
4A
27
C3
2F
0D
FD
0F
9E
C5
1C
46
7F
A7
89
F6
5B
89
92
AB
49
1B
45
31
29
2C
10
2B
2A
3C
89
EF
E1
69
0D
53
DB
78
40
BD
09
0E
5F
75
79
8D
4A
02
6E
19
AB
B2
DC
86
3D
1B
BE
8E
10
29
92
71
E1
E5
1A
CE
CA
1A
BC
9B
CD
FC
11
F7
1D
B5
5E
28
C5
C3
CC
38
F2
09
4D
15
C3
76
3B
C9
15
D3
8C
51
E9
8C
39
BF
8A
79
45
68
B2
A8
43
F4
C6
80
FD
ED
E2
95
AD
78
AF
E0
5A
51
00
1D
46
9C
F4
AC
B2
38
55
83
32
23
3F
87
3E
D3
05
74
37
A7
2D
0D
52
66
C6
03
40
3F
54
89
97
31
6B
C6
E4
86
2F
27
26
43
C9
25
A1
90
47
A7
E6
FE
47
58
A2
42
0B
C8
2A
7E
78
8A
33
C1
70
A6
BB
08
7F
7F
82
C2
E9
28
41
98
8A
8A
C9
F8
37
5D
F8
4A
D1
59
B1
82
CE
CB
D9
E5
1F
76
47
C2
0E
26
37
41
6D
39
74
7C
29
F4
09
7F
B5
58
BB
C8
28
6D
FC
81
04
A9
8A
81
24
E1
DB
FC
F7
9D
E4
93
FE
8B
DC
0F
50
B0
5B
77
50
52
B9
E7
CE
7C
82
A0
88
87
5B
39
22
29
5E
D6
EF
60
7B
63
A4
E2
36
21
67
60
76
40
8C
C7
D3
79
8A
C7
F9
77
3A
5D
B1
CF
5E
62
8A
39
16
A6
79
43
EC
5C
F1
5E
2B
1A
B2
34
02
89
34
8E
38
03
49
9C
C7
D6
80
6D
BF
A3
9D
77
C6
74
94
D1
96
49
D0
C5
74
59
95
0F
61
36
50
96
2D
B2
57
BE
CB
B0
7C
6F
40
CC
5A
91
D9
AD
C1
4A
22
8E
1A
D5
E3
AE
07
92
1A
10
8A
65
E2
E6
9F
AD
EB
45
00
69
85
EA
00
BC
B9
F9
84
2F
23
AA
CA
D2
C8
B1
65
AE
5B
06
F3
D1
46
27
75
33
AE
B0
F5
16
39
89
74
FB
0D
68
6E
D0
3D
BE
A1
B1
C5
B9
9E
42
25
A6
07
CB
53
0E
08
A4
9B
C9
F8
67
5D
A4
A0
DA
D1
C5
C3
3B
CA
28
9C
56
CE
EE
4E
E3
B8
4C
1A
EE
5A
EA
AF
56
4D
2E
9E
CA
A6
74
1A
56
70
23
24
F6
F8
FA
EA
D2
27
C9
94
CF
B9
A6
F2
51
DE
53
49
6B
08
9D
66
1C
72
A2
32
FD
BD
68
10
65
E3
B1
02
85
3E
9C
0F
88
53
97
D8
19
67
40
B6
DF
B7
07
82
ED
59
B9
F9
1B
03
43
A5
13
D5
6A
83
7D
E9
E3
29
06
CE
C0
F5
A3
E4
42
5A
61
A6
CC
61
28
3F
98
1C
D1
93
E1
35
2E
54
E8
14
3F
3D
4C
A3
03
9A
69
1A
9C
FE
E6
96
EE
89
6D
2F
E0
8D
84
99
A7
42
CF
CC
C5
6E
C5
7D
47
F1
FC
09
CC
38
51
1F
83
E8
D4
B2
11
4F
EF
DD
9B
CC
3D
89
02
C8
47
D9
FA
A3
80
71
21
34
F4
71
95
C5
3C
F6
0C
E6
67
9D
3B
1D
AB
0C
1A
7B
93
83
7B
72
97
B9
03
EC
66
55
DA
F4
15
80
3D
AA
8F
86
4B
FE
9E
9E
11
A8
A5
1E
73
13
18
CC
C4
87
E9
0A
1E
CB
FE
E0
F8
E6
FD
14
1A
A6
25
51
B2
D2
D8
97
F5
85
2D
06
48
05
CA
B3
BD
02
53
02
A9
BC
AB
4D
14
0A
19
8A
F4
7E
2B
2F
13
73
5F
34
E4
35
94
1A
02
5E
2D
A8
03
CD
E3
61
ED
34
83
10
EA
F9
BA
EA
A6
98
51
E4
B4
EE
7C
37
32
66
5A
75
F5
6B
88
0B
BA
49
B9
75
18
24
C7
6D
97
CD
D4
DD
E5
F2
E7
B1
60
3C
90
81
6A
2F
C6
10
B7
11
5F
51
17
71
DC
46
3A
DC
D4
7A
25
90
80
86
F1
7D
F8
13
1C
26
EB
D3
5D
7F
92
3E
82
7E
43
5B
E6
57
B8
5A
C9
E3
D4
9A
6B
52
5A
82
2A
B6
88
08
86
8D
AE
51
BC
55
26
D1
4D
C6
82
52
81
5F
6F
A7
94
B6
A8
10
C5
57
53
4B
33
F7
7C
AA
ED
AD
5D
F2
ED
53
B6
FD
54
CF
4F
0A
FA
2A
CD
2A
55
1C
A7
D1
CB
3F
1E
CC
DD
67
93
40
7E
90
83
10
31
02
14
8B
2E
EF
BA
F1
1C
4B
F4
EB
9E
C2
5A
AC
11
BC
38
B4
9B
27
52
93
02
CD
31
0A
03
90
7D
04
04
E3
1B
91
56
28
40
79
7F
F9
BC
94
0C
2F
E6
DE
7D
42
91
53
35
76
C7
EA
74
8A
45
37
5C
3B
CA
C0
EB
5C
E8
AD
B2
AD
B2
79
F8
4C
B9
C2
31
24
22
66
AC
12
7E
6C
ED
71
F9
F7
ED
4C
C5
46
10
EA
E4
98
2B
C6
49
10
97
B9
90
85
18
39
7B
81
D5
4B
C6
48
0F
2F
30
89
58
D4
54
CC
94
3F
F6
F2
4D
CF
AD
FA
34
A9
A3
D6
62
62
74
B1
9F
53
73
F2
EB
9F
95
AD
A8
B9
82
45
44
91
37
8F
A6
40
15
08
7F
06
99
CE
AD
5D
E4
A1
0C
81
9B
82
12
0E
1E
13
EB
1C
C8
C8
FE
3E
4D
A0
BB
F6
6D
3C
86
CD
80
54
BE
03
7F
83
A4
A1
AE
C8
EF
21
B9
6A
A8
DB
14
D9
6A
8E
84
FA
51
EE
89
FC
61
61
BE
29
D5
B4
10
04
E3
82
28
9C
59
F2
BA
24
33
49
27
FD
BA
F8
4C
85
EC
95
5E
E8
35
D3
B5
77
C4
07
98
FB
E5
13
8B
82
44
5E
A5
9F
D3
E3
7B
17
1C
CE
76
18
E2
C8
13
88
E1
60
14
20
C1
45
8D
96
A2
1D
D0
DE
2C
ED
A1
AD
02
9D
4D
B1
DF
F2
E4
AE
95
D0
D8
C6
C3
2A
42
C9
D4
9C
E2
93
81
B7
80
FD
D7
F8
E1
55
E1
13
48
4D
B3
4E
13
8C
78
DA
ED
A5
49
8B
A8
1F
14
B3
A5
C6
5F
9F
8A
28
68
99
83
27
64
B4
1B
90
78
5D
84
48
E4
BA
85
15
11
07
BE
B3
8C
C9
0B
93
A8
0F
2A
54
F0
A8
7B
E9
39
6A
54
A7
79
0C
E6
11
37
81
E3
5A
A8
E7
63
2C
41
21
67
D3
EF
3D
E6
3E
93
1C
93
2E
DD
95
8F
71
C6
2C
71
94
85
BE
C7
2E
C9
28
97
7B
0B
0A
8E
23
59
AC
A2
B1
A3
DD
AB
C3
04
3A
DA
11
5C
D4
F2
7F
F2
E7
77
AA
90
A6
11
1B
94
F0
3A
7A
DF
DF
FD
51
48
E6
0B
44
40
50
E9
2C
53
59
AD
4A
D3
8F
0F
7E
2E
25
69
80
32
F0
0D
D2
7D
A9
DD
10
DA
4D
F6
A2
FA
71
B0
13
E9
43
FA
94
28
4D
49
91
DD
48
58
CE
3E
1C
73
42
3C
C0
62
40
DB
68
78
73
28
5C
C7
95
92
A3
68
43
D5
2E
AF
EB
50
3C
DE
64
03
BF
C3
BF
3B
27
62
0A
F2
C9
5C
A6
84
B1
DD
46
80
DB
14
38
56
1E
EB
23
0F
46
B8
A4
C4
53
04
34
62
77
7B
6C
4C
6A
76
45
7B
34
3A
BA
14
83
2D
08
8C
8E
6C
FA
54
85
D1
E9
A1
84
F3
35
8E
41
77
9B
CD
30
2F
7C
92
D7
42
05
4D
4F
4D
3F
EB
94
AA
C1
9B
5C
A8
B5
E7
41
51
BC
AC
1B
29
43
C2
78
F3
CB
10
0D
AF
CC
8F
E6
FE
AD
9D
58
93
35
B8
4F
E5
C1
F2
E9
27
A7
C3
0C
02
3B
58
4B
87
59
9C
35
1E
52
8D
46
0C
AD
F0
A6
7C
05
C0
6C
64
CF
89
61
D1
44
49
B0
79
44
40
79
3E
33
55
23
98
C7
59
A0
EE
86
12
39
DA
EF
5E
C4
F4
11
6F
81
15
DA
D3
D7
C8
E3
29
D6
5B
E1
50
4E
3F
CD
50
08
78
E8
DA
B6
81
2F
3D
8A
4D
BE
FB
0D
AF
0A
EE
EC
5A
2F
24
EA
70
27
F7
89
45
E9
25
3A
10
F0
D0
D0
46
BE
B6
41
3C
FE
BF
66
7E
E2
10
8C
E1
E3
8B
11
A2
73
35
4F
AD
38
64
42
CF
83
A6
57
37
0A
A4
A8
8F
C8
87
B5
6F
D4
AE
AA
93
CE
8D
5C
D9
BF
8B
C1
57
3B
63
16
AB
08
30
85
64
2D
97
6D
29
44
C9
42
98
A7
CA
BD
5D
87
DB
C3
5F
66
BE
FA
2A
95
B3
68
60
53
A5
1A
D8
84
49
0A
EE
D7
A4
BC
C9
FE
5F
03
AF
8C
3E
21
19
3A
1D
6F
4B
69
C8
2A
92
36
84
B0
3A
C6
61
13
AB
8E
6F
53
14
02
44
26
0D
93
99
D2
79
6F
9A
36
EB
52
4E
7B
BA
C7
57
D0
B3
80
C2
0D
2C
13
41
34
87
AE
79
05
1E
46
E7
22
42
CA
BB
DA
ED
B0
05
DF
20
10
75
9A
4E
A3
40
1B
AE
A7
2F
4C
C4
52
AA
25
1F
A8
90
1D
81
38
D5
43
49
32
A9
86
07
01
8F
B5
F4
1A
90
27
DF
EF
21
08
AD
67
11
77
61
C6
73
9B
D1
A2
97
A6
10
52
88
71
AB
3E
7F
EF
6D
37
22
F4
5A
8E
B9
6E
40
1C
43
75
C0
68
59
CB
E7
49
2E
21
C0
89
8D
5A
8E
43
38
D7
96
32
D9
2E
5B
D3
72
39
4D
B5
EE
AB
99
DD
3D
BD
1F
92
DB
21
FA
C1
75
BF
2A
30
71
11
E4
C9
96
03
6F
CC
76
8E
C2
39
49
DB
10
0E
BA
26
A0
F5
A2
BD
A4
2D
A7
4D
32
80
0D
F2
0D
50
47
48
7E
EB
D7
D7
FE
ED
E3
DF
54
BF
33
BA
3D
CD
B9
5A
C0
A9
B5
0E
F7
26
D2
C3
0D
58
D3
9C
42
68
CC
58
D0
1D
EF
DD
8E
7B
40
11
D6
36
59
99
E6
59
D9
27
41
7C
4D
D1
43
62
4C
61
AF
78
E4
7D
94
54
DD
C4
BE
D6
25
14
EF
08
62
19
0E
00
FE
D4
30
56
E7
6C
1C
85
65
26
59
5F
46
FE
0A
14
23
20
5D
E0
6B
EC
37
2C
00
74
4D
4A
32
8A
59
6E
8F
BC
33
10
77
0E
37
BD
A5
20
67
77
CB
D3
DE
28
94
5F
B4
3B
3C
79
6F
A8
41
C7
D0
59
8E
1B
A2
A3
05
F5
24
24
34
AC
F5
41
31
F7
82
90
F4
7C
3E
27
2F
FA
65
F0
D6
EE
4C
C7
EF
F8
BB
D1
6A
59
C0
48
DE
28
CE
72
14
D2
13
8B
80
E6
60
A1
88
87
8C
FA
6E
99
B5
6A
F9
46
DD
75
8C
21
BD
19
C0
3D
5D
1B
80
29
62
09
FE
32
EE
1A
0C
E8
4F
1E
D5
BB
E9
97
4D
83
E9
F8
9C
AE
1B
0F
76
F9
77
2B
C0
66
17
6D
C4
D3
72
08
41
1F
80
60
7C
C7
84
BF
89
AB
1B
2B
CC
58
B6
58
9F
27
78
54
5F
6B
9F
D0
1F
60
EF
73
FB
73
FB
A6
4E
33
19
F9
5A
65
53
7B
FE
30
DA
5F
AD
87
17
1C
03
E6
00
F1
3A
94
13
8F
94
22
19
28
76
9A
73
89
8E
F8
3C
21
7B
36
F7
87
4B
1A
03
38
E8
CC
C3
D5
20
B3
53
D9
48
63
03
3A
B3
FE
F9
F2
64
35
3B
FC
75
C8
6F
2A
7B
5A
FC
BE
B3
09
2E
27
B6
12
85
BE
9B
C3
73
68
01
13
8A
58
72
A5
99
D1
64
B1
42
12
ED
BC
59
D7
D1
4F
FA
EA
1D
27
FE
EF
15
0A
7A
5E
49
81
36
D7
8A
21
47
02
73
4D
22
3D
29
D0
CD
C7
04
EA
0C
08
E9
7D
56
AE
1A
A9
1C
54
84
55
44
E7
37
96
E4
C3
17
46
AD
9C
FE
A5
54
B9
A6
C0
F6
A8
7E
B3
F3
CF
C6
EA
B8
4C
4E
2E
D3
92
AE
4D
37
39
3B
AC
48
D6
3C
E9
5B
0B
A4
20
7B
1C
68
E2
BB
2D
3D
29
45
3E
02
FD
35
26
3A
97
5F
FA
04
F1
9F
E2
51
1C
4E
9F
9E
05
57
9B
0C
1A
4E
E0
76
EB
35
06
02
6F
BD
11
A3
C6
6F
C2
D6
DB
CE
D3
BB
3F
6F
C9
E4
2C
5A
3A
05
21
A8
C5
E9
A2
1B
37
8B
FD
6C
0C
BD
47
01
34
D7
4A
53
63
90
48
5A
17
7A
7B
49
52
80
E2
AE
E9
D5
25
DA
C5
08
80
FA
37
42
FC
1E
62
C0
D5
92
CC
DE
A3
7F
B6
81
DB
32
0A
0A
85
23
A6
43
DD
B2
6D
FB
47
1D
78
D3
A8
6E
87
84
93
6B
F0
B9
1C
F0
22
FB
F8
EC
60
42
E4
2F
C9
7E
69
B7
20
E6
95
09
23
1D
B9
7B
7C
3E
81
C0
13
58
C7
5D
52
69
0F
49
FA
CD
92
D9
81
D6
97
DA
D1
09
04
44
64
E6
CA
3C
FD
04
C8
A9
91
BA
B7
93
B3
3B
8B
8B
9C
45
98
14
9B
9E
03
AB
F4
D4
F1
03
47
68
37
DD
66
F3
CA
18
73
F8
C4
1B
38
97
27
AD
A3
F4
81
BB
AC
03
AF
CD
3B
7A
AA
C6
B9
4A
C6
B0
A2
8E
1A
7E
89
A0
2E
51
A9
5F
45
A4
1D
3D
D7
23
61
82
C6
C0
BE
7B
5E
9C
56
88
F7
0B
4A
25
09
17
BD
04
BF
30
2B
EB
56
2D
77
11
65
2C
28
B1
46
CB
52
78
25
A4
8A
D4
B7
DE
1E
D4
DE
5C
89
F9
1A
47
66
87
AB
1D
B2
13
9F
5E
85
4C
4B
4E
F7
62
5F
F1
5A
79
EF
9D
46
E2
14
A1
78
DD
38
54
5D
A7
D0
49
14
40
0F
8C
D0
B1
DD
4C
50
25
45
E8
78
14
77
E1
BE
00
61
09
24
17
63
C3
92
10
56
40
B1
75
37
9F
A1
3E
CE
69
C5
19
86
40
44
E9
1C
82
5A
CC
88
E5
0E
97
1B
DC
A1
89
BF
B6
A1
E0
27
B1
75
BE
BE
19
D8
FC
B4
73
58
FB
19
8A
37
7B
F1
29
E9
BA
88
AA
D6
A0
F2
43
3D
76
07
A1
62
64
D3
53
3D
7E
B7
85
12
0C
BF
BA
99
03
73
71
2D
9B
5D
20
67
F1
5E
2A
CB
FB
55
6B
0F
40
63
04
27
CD
53
48
BF
14
45
FB
CA
4E
C7
2E
3E
F4
51
12
D0
7B
C0
EE
73
3B
A1
4C
EF
18
9D
6B
A9
A9
AD
85
11
B2
A3
59
FA
88
F0
62
98
2A
C9
99
0E
99
35
71
68
19
91
32
E6
66
A5
1A
36
E4
61
E3
8E
87
B5
25
DC
81
73
E8
EC
F4
AC
39
83
8A
13
F0
87
E4
1F
33
49
25
D2
93
78
AC
72
5E
44
86
F4
4D
69
FE
29
38
C5
4F
DD
9B
78
EA
CE
57
67
1F
D2
F6
B9
27
CC
6F
FA
F8
23
62
D9
A1
90
A7
81
FB
A9
A2
A1
7F
3C
01
12
C7
2F
70
FA
C2
8F
93
1A
63
21
04
A4
DE
38
F8
E1
1A
13
53
A8
EA
15
63
FD
B2
85
82
C2
FB
4F
65
DA
36
CE
47
27
77
DB
DA
39
DB
E9
64
CE
4C
03
FA
A8
96
34
26
04
80
87
75
F3
22
10
D7
6F
28
34
E1
AA
6B
44
2F
88
E1
9B
F6
9F
01
3F
3F
28
65
8E
D5
43
B2
D8
38
31
6E
49
41
9D
98
48
BD
5B
6B
85
76
A2
EE
B3
04
5E
33
9E
4C
22
D4
39
45
FA
DC
66
28
7C
3C
77
22
B0
7E
7F
7E
4E
98
30
F9
10
78
9F
68
1B
6A
BF
54
64
05
2F
FC
5C
F9
1B
BB
D6
2A
5E
20
D7
98
31
35
D8
D3
31
C1
C8
F7
0F
C1
78
3E
3E
A7
6B
CA
88
07
FD
05
05
E4
D7
E4
E8
42
28
63
14
81
A3
88
14
70
86
BD
2C
5F
16
67
0A
86
9D
32
5A
37
02
A9
02
C8
45
F0
48
44
FE
34
84
6B
A3
6D
CA
08
69
3D
42
F9
5D
A9
FA
57
3C
18
E4
69
A6
75
BB
28
1F
7A
6C
67
73
A6
A5
2C
00
91
93
DC
86
95
F4
71
2F
D4
39
88
CA
80
A2
18
B3
5C
46
D6
30
7B
D1
91
F7
6F
3B
6D
A8
3E
85
F7
12
C0
00
67
25
F6
4C
62
4F
75
0C
59
01
98
DA
9A
F4
58
CB
6D
FA
84
8B
D0
67
4D
A0
EE
01
84
DE
2E
6D
EC
20
A7
34
ED
DC
C3
71
EE
19
83
23
BB
C3
7B
69
05
70
7E
28
27
E8
5A
5C
F5
2D
0C
FC
67
72
B9
F0
81
EB
A1
D8
5C
BE
1A
C8
27
3B
38
1E
94
A1
E9
72
F9
AF
5F
67
C9
9B
22
5F
DA
ED
92
4B
CC
45
3D
AC
70
76
9E
89
83
04
B5
E0
D3
CC
B9
B5
35
AD
FB
3D
A0
9A
C2
3C
F7
CC
F4
76
5D
29
C3
D4
BD
43
70
21
85
B3
DC
8D
73
4B
C0
D1
5C
39
31
93
DA
26
AC
AB
AF
80
4D
26
F9
2B
AF
4E
3B
8F
2D
BB
5D
49
3A
8E
13
D6
1B
BA
17
1A
6B
6B
3B
D6
8E
60
38
44
38
1D
9C
7D
97
F7
11
59
D5
28
AB
AC
9D
7D
85
6F
86
D2
BA
D8
EE
10
31
83
D7
E6
3E
54
E9
35
EA
B6
57
1A
B1
E5
93
26
6A
A2
50
AD
87
50
9E
8F
3D
BA
16
81
D9
80
92
70
2B
C7
C3
9E
44
91
29
45
68
F2
1A
B2
9C
89
A6
17
9E
30
D1
AF
24
89
57
6B
10
48
F1
FA
56
89
C5
10
B5
C5
26
EC
49
7D
70
CB
04
B4
72
B6
DB
3C
F6
AC
59
C8
61
3C
64
73
47
0B
B3
51
94
65
3C
31
88
AF
BB
F1
67
1B
6C
2B
22
66
84
60
AD
E5
FE
91
76
42
A4
65
F2
AC
19
A5
D7
86
7F
F1
3B
E0
D5
B7
51
41
92
C8
36
BA
B7
9B
E1
7B
77
38
8D
CE
06
E2
58
4D
1E
5D
77
65
B2
F5
00
D2
19
DC
23
14
54
8B
2D
EB
74
D6
A6
7E
9F
B9
AF
E2
10
0E
D7
2B
FC
0E
D6
EC
F4
A4
A9
91
7C
CD
7D
0F
10
7B
AF
E7
EF
B6
85
F8
BD
E7
66
3C
D7
83
AE
90
55
D0
66
86
7E
FB
97
60
27
31
5E
DB
57
3E
E0
97
EE
9C
2A
E2
06
6F
78
B5
C0
16
D6
49
16
3E
30
8A
2F
D6
8A
5C
36
14
D9
77
5F
DB
94
34
02
0F
7E
F0
C3
2D
49
68
C8
13
1D
FB
A5
E3
21
84
B4
78
1A
35
E4
58
30
A7
FB
EB
23
29
1A
4B
A0
7A
A3
70
7E
E4
59
F9
22
42
6B
EE
ED
BF
AD
6F
4E
EC
51
0B
1A
79
37
66
0C
AF
08
35
63
85
51
7F
B5
50
2F
AF
9C
C0
6F
BB
35
E0
8B
4D
78
06
1F
27
BD
73
0E
CB
CD
BF
71
77
B7
90
4C
E5
35
07
5B
76
36
3A
C7
6B
0E
3E
11
56
6A
87
56
D9
58
A7
AE
90
7D
DB
30
55
01
E8
02
16
4F
03
20
22
57
62
42
F9
69
79
3B
BE
24
A9
ED
3F
96
EC
58
9E
F0
18
52
C2
A3
70
A8
7C
1B
C8
7F
52
28
8D
01
5E
22
3B
1E
75
D7
8F
D7
19
66
7D
B3
07
9F
5D
27
22
A6
F9
BD
0F
99
79
AD
3F
B3
1B
83
1C
CC
53
96
02
E5
FC
B9
B1
78
C9
F6
F2
13
69
20
A8
EB
17
54
8F
DE
69
14
C8
1F
19
18
D1
3A
56
24
5C
45
76
23
08
DF
C6
0E
CA
92
65
A1
63
92
60
53
90
20
49
B0
BD
CD
0D
D7
72
DF
00
54
2E
30
24
88
FA
6F
AD
D4
02
15
5E
D9
8B
12
5F
7D
51
D9
88
05
C1
BA
33
48
2D
47
DF
51
62
58
C6
81
A2
15
C2
07
57
91
F9
AD
CC
EB
9C
21
9B
E3
9F
0A
89
3E
E1
BD
64
39
11
DC
58
D7
3D
0E
05
64
C0
0F
B9
33
FB
81
B5
3F
A3
16
4E
3C
8C
F9
B1
B6
67
D9
49
09
ED
CE
1D
9E
F2
3B
44
D4
34
D7
AE
2D
18
47
FE
6B
70
99
39
BD
39
85
93
F6
19
2B
5D
AC
4D
69
00
F1
4A
D4
B1
2D
A4
CA
86
8A
21
C3
2C
7B
F1
99
21
A1
07
C4
7D
6C
98
D5
BA
A1
30
39
0E
48
93
C7
5A
59
2B
F7
A9
F2
64
07
E8
51
48
CD
11
F8
60
A5
97
C2
8C
31
81
C7
21
43
B1
13
59
E0
3F
B4
14
F7
4D
DF
82
78
24
AE
AC
6E
B3
32
9B
91
60
3E
75
F1
C3
57
78
91
7D
F4
CB
A6
4A
E9
2C
3D
77
9C
05
8C
A5
EA
0F
3E
38
C7
47
03
B4
2B
98
52
46
C0
D5
B3
32
05
2B
58
3F
F6
A1
C6
E4
7B
90
C1
E6
B0
E7
3D
2F
AD
AE
DE
B2
1A
5A
B3
B3
F9
19
51
5E
B3
39
3F
0A
2F
04
1D
94
CC
C5
56
DE
51
04
AB
C1
AD
89
E6
C0
5E
3E
FA
76
33
AB
A1
98
99
0C
E3
DC
9A
28
1C
1D
9B
C6
20
4F
74
00
AC
F7
C3
0B
F8
A9
2C
8C
7D
64
E1
31
A9
9A
32
83
0F
E9
A5
02
D8
7C
AF
A9
C5
AE
70
81
83
47
CC
5C
46
CA
2E
C2
53
67
B3
2E
BE
43
04
11
75
3F
81
D6
0E
21
DA
69
4F
3D
03
D1
13
D6
CB
D2
09
96
81
98
DC
B2
39
49
8D
D8
9F
D1
70
E1
F1
C5
25
43
2D
C7
79
5D
95
59
7C
EC
6B
9B
15
24
55
ED
4C
05
51
D4
71
28
BD
F1
BB
FB
D5
72
FC
AC
AA
D6
81
CD
78
06
3E
64
C4
E7
D8
94
4A
8B
93
90
00
69
A8
4B
18
90
F6
03
67
7D
6F
14
74
3C
5A
BC
04
1C
92
EC
C6
B8
48
89
F6
B9
FA
CA
0F
4E
88
55
9A
B2
51
2C
04
E0
DC
8A
28
82
1C
11
0C
90
0E
77
C0
47
39
8C
E2
79
91
03
55
C5
B2
2B
58
0C
A8
07
0D
68
98
B3
12
87
A7
1E
52
F5
A9
6D
0D
2C
02
32
F8
03
B8
9B
DF
DF
ED
1A
49
93
0B
D1
E7
66
1E
46
91
86
23
35
89
72
A5
CE
6A
48
19
B1
ED
4C
F3
B0
9B
4E
6C
63
43
1B
E8
4A
C8
DA
CC
0F
36
6A
6E
74
27
D3
1E
52
58
74
51
57
03
7C
41
B6
ED
27
AE
67
2C
5D
1C
1A
38
7D
A7
93
F9
8B
EC
22
8C
4A
5B
93
2B
72
3D
3C
3F
47
DC
27
9F
29
9C
CB
D7
5D
5D
EB
7E
BB
4E
C0
EC
03
E5
21
1E
2C
67
74
0E
BE
49
09
52
EE
7D
FD
E8
90
90
9A
E2
74
9B
01
77
9E
55
89
10
38
AB
2B
8B
22
78
1D
F8
B3
E5
46
79
FD
A1
D8
99
43
4B
49
06
42
F3
52
F9
3F
92
9C
39
4C
71
99
08
10
50
7C
39
C6
88
6B
E6
C8
9C
26
AB
EB
25
64
97
02
46
14
99
1B
AF
47
3C
6B
EF
42
89
27
31
4C
B7
44
B2
98
50
E4
4B
B4
84
DD
7C
21
F7
09
EF
58
4E
78
42
70
40
3D
FD
6A
EA
05
31
2F
61
41
BE
6D
59
B5
70
71
1A
CD
98
06
F7
08
D8
53
3A
D6
D8
C3
00
A8
80
A7
75
25
56
FE
6B
8B
76
40
FB
AE
95
97
E6
DA
93
00
93
FB
7B
64
E5
FB
16
58
EC
AC
21
C4
C5
D2
08
FA
04
4E
1D
F3
03
63
AE
1E
E9
46
70
12
FC
8A
63
12
FC
27
EF
EB
56
4B
77
F8
6D
57
13
DA
95
0F
9B
D8
02
C2
7E
7C
3F
62
FB
54
A6
EA
3F
0C
64
10
BF
44
60
4E
56
28
84
B4
FE
EC
F5
6D
C8
C4
67
50
75
E9
82
09
3C
35
B3
0D
5C
37
D6
4C
16
08
F4
32
01
3E
8C
DF
F8
F2
21
76
2C
2A
99
A5
F6
F0
4C
F6
C0
2A
2C
A9
1C
AC
F6
60
47
EE
EF
F6
84
BD
0D
28
84
C5
7B
3D
C7
E6
A7
77
84
5C
C8
B2
9B
25
9C
07
79
C9
5C
27
4D
5B
46
CC
E6
AE
FB
1B
0D
0F
D0
02
19
C3
58
9A
E9
AA
B6
EE
EA
3B
D4
C2
DA
C4
A1
02
7F
DC
F8
AD
DF
78
61
DC
E5
05
8E
D6
E2
3D
0E
33
43
FB
CB
F9
73
75
74
78
06
FE
5D
62
18
55
54
E2
0D
68
CE
8D
3B
66
40
AE
36
89
99
A5
D0
B6
F6
5E
C7
04
F0
E4
15
A2
24
8E
D0
C7
4F
01
45
86
32
7F
2C
C7
75
FB
FA
8F
76
8A
BC
99
7A
63
66
51
EA
DD
5A
93
20
79
53
62
16
5D
4E
4A
DE
B7
52
CD
E3
90
AF
5D
A9
42
E0
1D
D7
DF
E9
55
B8
7C
36
B3
8A
A1
E0
94
EB
F7
C9
A2
1F
66
07
78
66
5C
ED
0B
45
6B
59
7C
7D
0D
27
AF
09
80
07
24
3C
59
1B
C3
72
8D
F6
62
7A
C5
8D
90
76
8A
4B
0A
F5
C4
E9
C4
B3
72
E1
F5
02
BE
F8
2A
22
7C
76
D4
85
66
6A
10
D5
19
68
CC
B9
81
B7
88
68
63
50
47
E7
59
A7
68
ED
30
6A
70
53
98
EC
A6
F5
1C
B6
0A
97
0B
9F
29
D6
F3
E6
AC
86
CF
32
09
B2
6E
0B
D2
89
4F
76
94
2A
47
1E
01
A9
39
19
78
3A
0D
82
65
DF
04
EC
FC
06
EE
E7
FB
83
5B
44
B6
CF
0D
78
A1
0B
96
A5
05
D5
1D
74
DE
7D
F7
C7
0A
3C
61
76
F7
EA
AC
CD
2F
81
20
C0
FC
92
EE
AD
3C
3E
F2
29
95
F5
FA
17
64
0D
E5
B3
F3
96
E1
F5
A0
15
D6
C9
49
93
0D
11
6E
3F
6B
06
BA
9A
92
95
F5
46
B6
BA
48
E0
C9
53
CF
9F
E9
0A
97
EC
35
E1
30
95
B9
55
DF
5A
A4
40
1C
93
D2
FD
AA
E4
1D
8A
6E
F3
FD
CE
6A
25
C5
F6
99
DB
D3
AD
8C
1E
28
56
D8
BB
B2
17
1E
52
4B
A9
52
2F
21
B1
4E
3C
3D
53
B4
4F
7F
E6
C6
20
69
6B
02
2C
87
50
FE
99
81
22
B4
8A
D6
4E
D2
21
AC
AA
49
03
E4
08
56
12
CC
61
DD
A9
B4
72
D5
3B
6E
3F
A8
F8
EE
4C
70
BA
0F
CD
37
58
45
88
2F
A5
E1
16
C6
91
C3
3D
95
49
43
FC
09
10
5A
88
E5
FE
5A
A8
BF
AC
FB
E8
AC
80
72
99
61
B2
9E
71
4C
E5
1C
23
47
FD
CE
21
4A
ED
BE
D3
D5
3E
EA
79
CE
9E
C8
1F
CE
6A
A9
44
EC
05
60
EA
B6
63
25
77
24
AB
7E
0C
EA
BF
6F
1B
1D
F1
71
F1
17
6D
8C
A2
4A
CD
7A
E7
24
A8
BB
E9
31
1F
31
2E
C1
84
4A
81
49
29
6A
FE
D7
4E
AB
78
97
A2
9C
9A
D2
43
EC
59
E6
78
44
7E
A9
7F
2F
9D
15
2E
4D
85
34
42
F0
9C
74
E4
38
BC
EE
8D
3F
2F
0A
84
2D
70
F3
D3
0A
73
81
3F
19
15
68
CB
8C
6B
78
32
BD
11
1D
D7
C0
E3
FC
19
86
29
B1
FC
F3
BF
D5
AC
00
2B
50
AF
70
28
85
CD
65
84
23
A3
75
67
AE
84
6B
D2
A2
56
2F
F3
3E
9E
8D
BF
18
27
B0
80
6F
45
2F
79
E1
66
3F
98
92
2D
A4
22
DA
95
BA
1B
6C
FA
5E
9E
6C
D4
07
8A
33
2C
DB
38
BF
9F
C7
10
4C
00
90
FE
19
8B
78
85
AC
CB
F8
33
3C
B7
A2
F2
F3
BE
CA
0D
3E
99
1A
3E
68
FA
F1
80
54
46
40
0D
0B
31
D1
FE
58
9A
22
A0
F6
FC
25
D0
64
E0
E1
EB
95
CB
43
B6
6E
17
11
04
33
40
E2
E6
2F
F4
9F
79
A9
E7
F1
23
10
36
ED
9F
BB
60
02
87
3D
89
CF
39
53
FB
83
EB
F5
51
3D
55
AE
65
9E
72
2A
CE
65
F7
C0
25
42
4F
22
51
CC
D2
A1
59
00
AE
1A
ED
2F
C1
75
75
B6
1A
C1
82
08
4C
32
9B
D2
1F
9D
E6
15
13
E1
CB
3E
01
45
D8
1F
6B
AB
D1
98
23
8C
F2
89
7C
F7
18
24
24
F4
12
46
6B
AC
57
FC
59
94
A5
71
17
04
3D
BA
B0
2D
81
BF
D0
D1
7E
20
B4
1F
4D
07
40
5D
63
79
BE
A9
F5
73
0D
1C
81
A4
56
65
F0
B2
D0
56
7F
D3
75
83
84
36
81
20
F7
1F
96
5F
13
FC
29
5C
05
84
24
7C
57
40
BC
86
FB
5A
6C
63
27
A1
94
F7
9C
A5
DA
96
77
90
A1
72
69
D4
08
05
D6
D8
66
CE
37
D0
A0
37
05
38
60
FD
34
71
C8
9C
36
23
21
D2
97
D6
13
67
49
20
E2
A6
C5
95
C3
52
20
F9
E9
17
C9
D3
80
63
1D
CB
7D
AD
9E
1E
88
F7
A8
8C
96
97
94
06
52
D4
BF
6F
64
EE
95
2E
06
DF
93
3E
8B
49
3D
E4
AC
53
5A
F3
E9
64
B5
6C
9F
87
DC
63
5A
CA
18
9F
F0
C5
F6
17
DF
47
72
6C
90
11
AE
72
5A
52
AC
BA
F1
67
72
72
75
9A
C4
CD
6C
E2
8C
4F
EB
90
33
4C
33
AA
4B
11
71
08
00
6A
55
3B
1D
C6
AE
C4
C3
C6
57
63
F4
0F
45
E0
4D
57
92
E0
3B
15
EF
CC
00
AA
D4
62
AB
7B
B3
BC
C1
8E
42
76
91
7A
AF
A2
DC
0E
19
A4
1E
D1
7B
E9
82
F2
AA
A3
AB
79
F1
57
80
7E
09
B4
D6
E5
95
57
A4
13
3F
EE
5F
9A
EF
56
0D
4D
1E
DD
F7
46
67
EB
82
66
DD
2E
80
E5
A0
7C
E7
F4
20
0C
D7
AE
93
83
36
6E
86
CB
2D
F9
3E
A8
8A
93
A5
50
66
D2
F8
5E
E4
22
3D
3A
96
A6
36
0F
F3
4D
BA
49
CC
0D
7F
30
EC
44
71
41
AF
50
E3
48
F9
1A
85
73
CA
90
01
9E
53
00
D2
32
92
47
9A
03
60
12
59
17
4A
E4
01
3F
96
29
C4
AC
67
65
39
08
B5
35
F0
C5
14
36
62
35
44
C8
CF
74
37
90
62
01
A8
35
6A
B3
FD
11
DF
7B
6A
3B
2B
5B
8C
D8
6C
E6
93
DE
32
A9
FA
B5
44
C9
03
25
21
D6
0E
F9
CD
2C
02
65
28
0B
EF
AE
CF
03
02
75
FC
CF
62
31
18
D3
11
B4
C8
6A
FE
89
99
F8
93
CD
E6
A6
94
08
1B
FE
66
B3
F7
9A
C0
6A
D0
C9
DE
2B
8C
A8
D3
1F
02
58
05
95
B2
18
BB
CA
19
CB
1D
0B
4A
F4
A2
DF
2B
AD
DF
EA
19
A0
EB
99
17
5F
6F
AE
5E
E0
81
62
F3
08
51
80
B3
F6
52
04
52
B2
AA
35
27
3D
05
73
0D
07
D1
3E
AE
28
88
FD
1E
C5
08
FA
3C
48
E5
01
35
58
79
AC
42
A8
80
AB
AA
E9
0D
84
5E
25
A9
03
79
E6
A6
4A
B4
71
F4
7A
4F
8E
F1
C7
6B
AB
3F
E9
33
30
16
A2
0D
14
95
5F
48
B2
23
14
5D
F5
75
9D
A1
7F
AE
6F
86
88
E1
E4
6B
CA
3E
0D
59
42
8A
75
8B
A4
3D
DC
CA
26
86
7F
A9
DC
E5
8B
7A
C9
1E
95
D6
F9
70
16
2A
DB
9A
4C
80
4C
C5
D4
6C
FE
7D
A4
3F
41
A4
30
A1
F1
84
21
C5
47
BC
2D
C3
8D
9B
D8
EE
9C
46
AB
E3
8A
FA
DA
68
5E
35
80
5D
D1
39
FC
67
71
DA
86
C2
89
7E
00
B5
F2
E1
84
39
87
19
CE
A7
F4
0A
17
86
34
CA
5C
12
53
4C
6C
54
38
A7
3A
CA
7E
1A
1F
3F
39
D8
21
08
96
47
97
E2
78
99
F9
30
DC
56
2F
06
C9
ED
BF
AF
9E
F5
4F
C4
5F
75
0C
5F
28
5A
DD
D4
64
74
DD
B5
DD
58
82
95
0C
4A
