CF
1A
2D
4E
90
B0
22
C3
8B
3F
9C
BF
8F
B5
1C
EF
7E
96
67
81
BC
E9
E6
66
36
D9
09
A7
1B
4F
B2
81
F3
31
C4
08
67
42
F2
8E
DF
A3
59
D5
5D
DA
7F
FA
A3
8D
86
01
B6
22
63
62
3F
6A
91
23
8E
B2
A7
DA
E2
11
3B
91
5F
F9
95
26
22
7A
0C
FE
14
CB
20
53
0A
98
BA
CA
A6
EA
95
58
7E
DA
F5
F1
A4
AE
17
6D
4F
54
A4
0E
F4
5B
74
CC
4B
85
73
6E
56
4A
1E
80
72
E7
26
80
B1
A8
16
A4
18
47
92
DF
DE
56
CE
2B
8A
09
32
4A
BD
36
78
F3
A8
9F
C9
56
08
38
F1
63
94
51
9C
BB
63
2B
5D
A6
A4
9D
B3
23
1C
E3
4B
B7
0A
53
A1
29
73
C5
79
2E
79
B5
17
27
BB
DA
B5
59
39
8B
79
56
46
BA
E8
90
AF
FA
78
C1
33
5A
9F
7B
34
EC
94
97
00
37
09
89
46
3A
87
49
71
17
F0
A7
11
F3
52
FC
43
37
89
7A
64
08
0E
85
5D
CF
5B
DB
1B
9E
A9
9A
BB
7F
81
13
F2
66
EF
FE
61
E5
67
5A
AA
B4
F4
84
1B
2B
E7
A3
C9
55
DF
55
FC
1B
E6
D8
72
5C
8D
64
A3
59
6B
8B
3F
AE
FE
6B
50
BB
7A
2E
70
50
90
01
10
AF
95
EF
D0
9E
EF
3D
7D
60
24
3D
44
77
D8
21
70
71
CA
93
EC
B5
93
9F
60
D5
95
0D
72
E1
36
29
FE
B9
7C
43
70
C1
23
C4
B8
9D
16
4E
97
85
8E
E9
53
27
5D
63
5B
11
B0
74
51
96
55
93
BA
73
9F
EA
3A
E8
2D
00
49
1A
06
85
F0
72
4E
08
58
E2
CA
A0
03
7C
74
13
29
79
98
83
5A
89
0C
29
71
1E
F0
43
49
77
74
63
BE
CF
0E
25
95
13
27
93
9B
E3
33
7D
73
AE
F1
99
31
6B
B9
66
97
05
9B
26
5B
46
97
C6
22
63
DE
48
88
B4
F1
31
BE
90
C6
E5
95
E0
0E
29
95
61
1C
5C
03
8A
9F
25
E0
1C
15
D9
E9
4C
58
98
DD
5A
76
07
F6
17
34
16
B8
9A
30
C8
1D
F3
53
82
31
0B
EA
EB
43
31
F3
41
58
64
EC
BF
2C
AD
D0
87
BF
49
9E
1A
4E
B7
13
35
C6
6A
62
2F
49
4A
EE
57
5D
10
53
13
04
6D
DE
C5
02
7D
6A
0D
5B
AA
58
0B
B8
B9
BE
34
73
0B
76
F7
3D
14
FC
D1
90
91
1B
88
90
F9
28
2B
89
3C
5E
CE
94
3F
E0
DC
4B
61
0E
1C
03
C2
FC
EE
37
E3
47
4B
6F
7E
F9
13
5B
25
91
7B
F8
E6
16
93
7E
47
88
48
48
BB
53
9D
54
00
57
ED
3B
1F
96
AD
54
DD
2E
1E
97
F5
B6
5C
DA
FC
49
40
82
BD
6C
26
0B
F6
C0
D0
23
F6
81
E7
5A
35
95
24
8C
CE
A8
00
A5
71
0C
62
22
BB
E8
ED
5E
8B
78
28
38
32
75
61
1D
54
47
0A
A6
8C
90
40
4F
D0
0A
39
EA
47
46
4F
8D
CF
8C
3B
3E
EF
63
38
1D
90
0D
62
D9
7B
53
51
B8
9B
6D
F0
1C
5D
27
B7
BE
64
C8
84
30
54
A1
99
26
5D
1E
D4
24
B7
B3
90
06
EB
C1
9D
56
8F
EA
6F
08
DE
70
89
D1
02
C1
F9
B8
27
FC
81
3E
BF
26
C7
51
63
68
C0
6F
C1
C5
5E
7B
DD
8B
F3
59
BA
61
D2
6F
63
E3
56
4D
40
25
DB
5C
E0
8D
F9
6F
4F
BD
51
6A
4A
8A
CC
E6
8D
F4
09
11
5E
F5
6A
2C
0C
4B
66
4E
AE
26
89
FC
99
92
0A
3D
21
3E
A7
FA
F0
E8
38
02
69
F8
6D
6F
5E
91
11
6F
F1
2A
D9
E2
89
18
0C
15
69
6A
3C
D7
D3
83
C4
4E
F0
1D
59
44
39
4A
CA
4A
0B
B7
24
45
2B
A8
44
04
01
49
06
03
24
FE
19
15
1D
6E
64
7C
BA
45
66
5E
29
F9
6D
A8
55
20
6A
09
B7
DA
DC
1F
3E
57
29
73
FB
7C
86
46
C3
CD
83
C8
09
C8
C2
23
52
56
9C
66
6B
50
0F
73
20
E8
8C
5A
37
0D
37
47
76
EE
D3
53
26
8B
4B
68
A0
91
05
4E
FE
29
A6
51
DA
89
68
4F
36
6A
31
E3
6B
F1
1D
D6
3B
38
34
30
E0
C2
1A
5B
D2
E4
93
75
A6
99
D8
71
A9
9E
82
12
7C
0B
F9
19
A5
59
18
7D
69
1C
BC
1F
AD
F5
17
92
8F
48
88
81
9D
FB
AB
87
4C
0D
F4
00
5C
C4
78
E8
06
AB
F0
4B
8E
DD
8B
E4
CB
B8
CF
74
49
D5
D4
54
CD
B2
AC
5A
B8
CE
B5
59
1B
F1
02
54
60
BA
C4
52
F8
54
03
CE
6D
75
6A
2C
CF
B2
F6
37
08
4A
D1
3E
C1
84
5C
FC
A5
E8
21
A5
AC
A7
14
68
D0
44
EA
BB
DD
5A
C2
D4
47
B8
9F
34
2F
A6
D0
2B
95
95
93
32
3A
B9
35
FE
90
4B
5B
5A
AB
73
FD
1D
0F
E4
C9
9D
74
5F
20
7A
D6
6A
D1
75
14
2E
58
5D
5A
68
2F
09
4A
2B
AF
87
D8
F9
37
A3
F6
DA
6F
B6
33
44
6C
72
52
04
97
29
CB
BD
4D
38
F1
2E
76
77
78
BA
D5
8E
27
BE
19
89
0E
CE
25
D8
05
0F
43
9D
D8
82
08
FC
25
07
02
50
B3
58
25
4C
98
33
0E
C7
FD
B1
D7
CC
10
1B
A2
0A
8B
28
6B
44
F8
8B
2D
17
37
3E
6C
6F
04
0B
EC
E0
EC
66
38
B7
42
7A
7B
8A
74
C3
99
78
B3
B1
8D
5B
53
57
E7
87
B6
D7
64
42
6B
94
EC
E0
45
6C
12
6F
2C
05
47
DD
1C
E4
87
79
27
7B
20
96
0F
1F
DC
EC
E5
F6
33
BE
05
DB
E1
DF
4F
AA
E3
F1
98
B0
18
4B
1F
A2
7C
AE
BA
B2
F6
11
EA
0B
4C
49
1F
B0
6F
A6
71
C8
A6
25
D0
FE
40
9B
44
4B
C2
FA
BF
24
52
21
84
FA
1A
F6
03
4D
51
D9
63
95
80
D3
D5
F2
10
03
87
C0
4D
4B
73
52
BA
7D
10
79
D5
3A
67
94
2E
E8
F6
51
05
D9
24
52
D6
AB
6A
61
B9
2C
50
34
F0
45
96
17
A8
67
6D
34
44
1C
AF
C2
32
D5
45
04
08
75
7C
00
C2
3F
B9
87
CE
CC
6C
06
03
53
06
F1
83
E3
10
55
70
84
90
55
04
BB
F3
0B
B0
DE
FB
FE
9D
55
9E
10
52
65
BD
61
92
F5
25
C3
29
D6
DB
60
CB
11
1A
5B
64
25
09
81
E9
3C
1C
AB
9C
F8
80
AA
B9
9C
32
D8
EE
1B
3F
54
1B
5B
9A
6A
30
58
D4
47
BF
3F
2A
13
75
BA
91
2D
2E
77
09
56
E3
04
5A
A8
4B
2B
D2
85
80
1D
1A
15
43
E6
EA
1D
1C
1A
5C
01
69
D3
A7
64
91
A2
40
31
C5
00
B7
C9
27
99
4B
B6
18
47
3B
A6
85
79
95
49
18
77
53
1E
58
AC
C8
41
A4
04
BB
BB
9E
EF
E9
23
0E
28
DF
75
45
33
1A
AE
7A
1C
43
44
CA
D3
3D
E4
13
30
EA
28
2F
91
84
05
B2
56
19
AE
EF
8A
FC
F4
0C
FB
09
29
9D
4B
A2
75
65
F7
59
3F
F9
93
68
0A
24
1F
77
15
82
B4
45
4C
FE
4C
02
A5
C5
DD
60
41
5A
97
92
72
BE
7A
18
2B
E1
34
26
BF
07
A2
F2
BA
0F
D0
24
B8
C0
7A
74
E7
D3
26
A1
5B
C3
5B
DB
C0
89
D4
0A
75
EF
89
57
49
3D
D3
12
33
1B
72
23
E2
34
3A
F6
2F
1A
83
69
5F
09
33
3B
80
93
23
7E
A7
DD
31
F3
7F
E0
3D
E3
3E
F4
B6
E1
36
44
C5
0D
7D
4C
6D
48
92
4A
A6
BD
01
A9
C6
28
CB
C5
E8
C4
8C
BD
52
C7
2C
EE
F3
83
B8
AA
1F
D3
8A
B7
90
C3
E3
FA
C1
A5
61
36
2B
82
7D
EE
AC
76
99
2B
D1
EF
B2
97
58
51
79
54
E6
47
C9
84
F5
8E
82
9E
EB
74
69
5F
06
68
FA
C5
1F
CB
4D
D3
A3
23
A8
FD
41
8E
C1
B6
40
96
A6
F6
B2
AA
67
1B
72
DB
52
31
E6
30
E6
81
F0
D5
EC
64
05
EB
EA
94
86
52
A3
A7
58
C9
F5
81
21
92
DF
10
29
07
7C
F2
E5
0A
7A
93
61
24
6D
FE
E8
B0
D1
3F
2F
24
AC
E5
62
C7
2F
C4
22
BE
E9
EC
B9
05
50
68
AC
99
15
D3
AB
86
5C
47
D0
27
40
66
4C
EC
82
21
4D
E2
AA
AB
D9
39
A1
1D
72
96
03
ED
87
B4
50
A4
F8
20
08
D5
E5
3F
D8
B1
C7
3F
B0
85
58
C5
30
C7
A9
C1
E4
01
F4
97
70
42
E6
89
4F
76
A3
24
23
8F
B1
FB
1C
92
77
E6
DD
01
DB
45
99
93
6B
E5
13
20
6E
B5
EB
55
91
6F
ED
13
E3
15
E9
70
BF
D9
F3
5F
97
EA
FB
0A
78
90
2E
E2
AD
02
DE
15
C5
81
41
D4
C0
B6
83
19
74
FC
C1
D7
C0
B8
FE
1E
1B
E0
34
9F
4D
D0
31
69
C4
36
5F
05
3E
85
1C
E5
22
FE
5C
65
6C
2D
BD
AE
7D
E4
0D
C2
7A
6F
5B
87
84
5D
73
2D
02
B2
8E
87
B6
6B
A5
BE
6D
AD
41
D7
BC
BE
76
68
BC
03
05
49
77
5C
90
A6
7E
E6
DC
3D
E8
47
5B
46
57
85
6A
2A
88
DF
F2
7D
E0
97
AE
31
00
3E
19
C6
E0
EB
A6
F2
73
12
31
24
09
C0
05
CC
6B
1A
40
AE
D8
79
64
C1
CB
E4
64
B9
6C
43
09
CE
F5
3D
8B
06
4F
6E
87
6B
F0
FB
6C
B8
2F
55
CF
47
7C
AA
8B
FB
D6
F4
A0
70
D4
52
1A
B8
56
A2
61
E2
AF
1F
17
D4
08
F1
4A
26
5E
4C
3C
47
79
1C
F7
C0
B4
BB
3B
33
18
94
98
52
05
B6
A0
66
55
43
53
ED
81
58
71
D1
16
09
BD
AB
64
C6
BF
83
21
E7
B0
EE
5B
69
51
05
66
29
E5
82
0F
13
D4
A9
79
90
51
1F
91
34
B6
88
EC
5D
7B
7E
4A
08
4A
83
01
74
DB
ED
07
61
4A
AA
C3
D9
06
C8
F8
7A
C0
CE
84
16
5D
4B
45
E0
B5
CD
13
7D
B7
64
C2
55
60
90
D5
E6
F2
E7
59
88
5C
70
BC
C2
C9
C1
70
00
7D
85
4B
7C
CA
9C
A6
4A
B3
13
69
0F
FE
14
F6
A3
DA
B8
E2
AA
DD
CF
B7
0C
F4
CD
33
42
D4
56
CA
7C
63
3A
12
C5
03
5C
41
5D
A4
34
B2
12
9E
32
BE
23
D3
BD
73
03
4C
1A
DC
3F
83
6A
4B
F7
5D
D4
83
22
6C
9D
36
CE
2C
94
EA
61
8D
06
E9
6D
E3
E5
23
E9
AB
F7
DD
19
73
1D
68
F5
73
99
AC
34
8A
E2
04
4D
62
E2
1A
E3
8F
66
F5
55
3E
A3
F5
B8
C6
A9
81
9B
69
1C
DA
69
4B
67
BE
51
28
5D
49
81
B3
BA
51
CF
B4
9E
D1
AF
FD
BF
02
B4
31
23
64
D5
94
FD
D7
07
91
30
94
DD
A7
0A
F7
FC
DF
8D
58
1B
25
C9
D1
8E
87
A6
F2
31
64
A5
32
66
3E
B0
EC
5E
83
7E
DB
D0
80
D3
14
1C
C4
85
55
CB
B4
9D
84
BF
2A
AF
47
55
29
2B
EB
2A
E2
7F
61
46
B1
B5
F6
E0
DE
75
FE
71
2E
D4
63
05
4A
39
DC
1B
3F
85
53
13
A4
E7
C8
3E
7C
68
FD
65
1F
B0
87
20
C8
7E
EF
50
1B
A5
A9
B2
DB
A6
1A
BC
45
11
DB
85
C0
E4
7C
23
2B
6D
2B
AD
4F
19
6F
76
42
8E
2A
38
BF
9C
C3
CA
20
37
44
AD
C3
97
6A
D3
B2
75
9C
84
CF
64
83
87
18
7F
F8
55
B0
32
FE
6A
48
3E
F8
61
51
1B
AB
58
09
57
F6
BC
2A
5E
4A
47
53
D3
B0
F1
77
29
71
3B
C6
E8
1D
45
36
83
B0
BE
7B
BE
2D
CE
87
D9
BC
43
2D
42
92
31
97
96
DC
54
27
0F
95
07
D6
3E
B5
D1
08
85
AD
AD
57
61
10
BB
F9
37
AC
D0
B3
D7
CA
A8
F0
21
F3
D0
2B
BB
70
B2
0A
0E
68
ED
61
AA
E3
D2
2D
F3
2E
66
5D
3E
22
F6
CF
8C
4A
04
89
5B
07
22
7E
DB
CD
D3
03
1C
6D
F8
4A
13
8F
4E
DA
7E
E1
62
2C
2A
59
90
23
C9
51
F5
07
62
B5
14
D9
95
0E
87
20
72
EA
32
8D
BA
55
52
59
14
1C
2A
E3
BA
69
AA
13
27
70
15
5F
4F
E7
86
F3
52
7F
B5
B8
FD
BC
ED
1D
E1
73
ED
5E
F0
6E
C2
B6
5B
46
EF
04
99
44
06
35
A6
BE
DC
4C
32
53
64
62
5C
30
79
03
DE
44
BA
C0
4C
E4
D1
14
37
E9
5A
EE
F5
5A
E6
F4
D3
49
05
1B
10
6C
E4
EA
42
E3
84
FA
ED
B4
C9
2B
C0
18
71
97
35
E3
A0
D9
04
34
6A
D8
D7
9A
B0
8C
6B
E8
9A
8A
70
C5
F0
37
2C
84
A9
74
8B
E8
6E
BF
20
85
96
06
92
6D
BA
AE
D0
23
96
72
C5
C3
A7
00
8C
71
33
19
59
D7
FE
B2
EB
5C
BB
6F
51
1C
57
B6
4B
D2
5C
DA
01
D8
D8
C6
8C
BE
DB
33
4F
21
7D
FA
03
34
07
CB
7C
FD
D6
B4
0E
91
82
B4
F6
2B
F5
D7
32
E9
D8
E5
94
9B
89
1A
16
F2
E7
F7
10
86
09
5E
37
1A
0D
3C
57
48
0C
A2
E8
89
A8
CE
DC
12
AE
AA
89
36
3B
CC
B2
76
5D
C8
44
55
E9
AF
5D
18
0E
42
59
D7
7B
48
DB
4F
E2
91
3E
6C
F1
7B
80
D0
84
0F
F1
43
1C
2A
AE
20
32
89
82
46
7B
C2
65
7B
74
EE
89
C3
32
B9
B7
14
06
1F
03
7C
5F
8D
74
B3
34
B2
8E
41
AC
C6
4C
A6
BA
8F
87
ED
BC
6B
F4
8E
BC
B4
5D
5C
1F
C4
08
85
97
62
94
D4
0B
28
78
6B
8F
3B
18
3A
3D
52
84
5E
F9
54
FC
32
48
DF
5F
16
24
FA
E9
8B
5F
F4
25
C2
1E
93
0D
E7
15
33
37
DA
ED
A9
7A
F5
AB
9D
41
34
89
FA
14
EF
00
91
44
3C
CC
DE
EA
59
C8
66
3C
1D
76
65
E9
F0
DD
B7
A9
62
3A
F4
29
AD
AA
9C
F8
E9
6C
BA
D0
6E
D4
23
87
8F
55
81
CF
07
3D
32
AE
F3
DB
25
8D
EB
22
58
62
BF
38
F8
43
37
ED
AD
89
F4
61
3E
A6
88
52
78
B8
D6
6E
09
49
83
39
E7
75
6A
C3
F1
26
D4
EF
ED
9E
A1
92
2C
E3
2B
BE
66
E3
25
F9
DA
C3
3D
F7
BE
A8
F4
53
CE
95
B8
A1
CB
6D
69
3B
73
E4
16
0D
07
90
6C
DC
59
50
3C
9E
2E
87
E2
BE
71
FC
F2
39
68
F7
ED
EF
85
A7
F7
42
7E
34
38
D1
0B
26
3B
36
9A
5C
0A
6A
12
A5
F1
D1
24
83
8B
D2
9F
4B
72
1A
A9
FB
20
64
F9
9B
29
B1
77
31
03
50
D2
84
CC
81
26
9F
B3
F1
FA
51
D6
F3
99
A3
1D
97
F3
9A
67
30
42
E9
0B
E0
80
15
53
13
94
06
11
41
3D
86
08
A3
E1
8E
3D
26
74
9D
E7
A0
42
0C
F3
BB
71
A2
23
24
4B
56
1F
60
0A
3F
22
D1
FB
AE
E6
1B
11
9E
FD
87
65
13
30
EE
75
89
FC
D6
00
E2
9A
96
9F
EB
D8
1E
BA
00
EF
35
16
E7
E6
E4
56
94
66
F2
DC
A9
41
B3
22
0E
18
B6
BE
8F
6E
FC
59
5A
22
63
7B
A3
EE
64
2F
D3
B4
10
0B
72
0D
A6
CA
07
12
90
5E
E5
53
98
2D
B7
35
9B
57
9D
34
6B
14
DE
AA
6C
71
DE
A5
31
5D
4C
29
83
EA
13
07
02
46
11
0A
EB
1A
D4
89
FD
6E
AA
72
08
6A
82
09
6C
74
E5
28
13
71
F4
E4
9C
26
E3
46
CC
A2
C2
49
35
4A
BB
D3
BE
B2
C5
FB
77
F0
28
86
8F
3A
44
27
7F
32
54
6E
8C
8E
C7
B7
88
F3
4D
D0
D3
BF
BF
A9
35
44
C7
FB
D1
33
BE
CF
2F
8C
17
A2
3C
5D
0B
08
70
48
20
26
64
1F
F8
AC
D6
06
C5
7D
1F
27
5C
A8
23
EA
30
90
DC
5F
CF
5F
7F
C8
24
4E
C0
14
64
C0
33
66
95
AB
36
ED
02
46
8C
93
0F
5A
E1
59
C7
B4
A5
BF
D1
3D
2B
12
E0
82
02
84
90
2A
6E
0E
DE
12
E4
52
F8
6D
DA
A7
A4
C4
3C
8C
C0
C7
58
04
A3
03
08
36
4F
5C
75
3F
6A
D4
C5
7A
96
FB
F4
9B
50
E5
94
C6
0F
7A
34
DC
2F
0A
A1
BB
03
AE
65
7C
88
0F
05
C0
2E
E7
44
F5
28
E5
0D
5C
8E
27
20
40
50
72
43
AD
3D
FC
64
EA
53
E1
8C
5D
25
D0
D0
7A
0D
EA
51
5F
D9
35
53
7D
EA
0A
15
E0
E4
C9
0C
6D
0A
0D
C3
6D
0C
E7
57
AD
D5
A9
4B
56
86
AE
EE
FA
0F
0F
33
8C
8E
7C
56
51
B4
7F
51
49
0F
82
EA
46
07
52
05
FC
85
51
A0
71
37
18
09
3C
00
C5
9F
E5
B1
10
87
78
A1
D0
6D
16
DE
3E
3D
E9
6A
D3
82
DE
39
13
B8
A2
01
BB
99
F4
B5
1A
C0
F5
D6
22
9A
72
B6
42
51
FA
15
33
01
BA
63
EE
65
A6
41
BA
73
4A
92
DB
3D
FA
8A
81
93
09
71
31
33
FE
1E
C1
F0
33
EE
AE
ED
07
4C
44
6B
C4
28
B4
00
85
28
45
58
AF
3E
06
E7
09
3F
1F
25
56
50
5B
40
50
D9
D4
29
35
F0
D8
1F
15
97
71
8A
4B
72
C3
BB
6D
0D
1D
BE
23
05
A2
FA
B3
BE
00
53
83
1A
A9
97
7F
24
91
56
6F
D9
60
8E
94
29
0F
C1
2E
23
6B
5D
E0
EB
6F
EF
53
9F
7D
BD
50
C4
2F
AC
A0
0E
94
4D
43
AB
6A
04
0C
2E
F3
D9
39
2E
48
D1
D8
F0
C1
C9
ED
C2
80
61
D2
92
16
E8
86
17
1A
A3
7A
4D
B6
CE
F9
54
8A
9F
C3
73
A3
58
41
F9
3E
9E
58
C8
6D
5B
BA
04
EA
E0
3D
CA
AC
4F
2D
DA
8B
70
82
E2
D6
53
BC
C1
64
90
43
3C
72
6B
C1
F2
77
48
BD
46
18
59
EF
B3
7D
26
13
6C
A8
65
80
BF
E2
66
BD
CF
72
B3
3F
E0
0E
04
E2
9C
6C
17
C1
C0
6B
2F
3A
EC
8B
AA
D4
7C
59
45
81
24
2E
19
3C
DD
F4
F4
6D
84
F7
34
8A
2B
EA
19
4C
57
60
63
2B
B9
B3
4F
26
CB
A1
A7
00
23
1A
65
4A
CB
9C
47
AD
04
A4
1B
BC
72
69
1B
76
A7
60
64
1B
C7
6D
88
80
80
59
17
D7
59
1C
EB
1A
12
7C
45
73
D5
4D
9A
F5
D5
DB
10
EE
72
91
0E
92
B2
B9
65
7D
89
3E
FA
92
F9
74
1F
89
A1
EB
96
52
9D
35
BF
49
88
DA
DA
8A
5D
15
15
CF
1F
2B
9E
16
4A
08
43
6F
A9
71
19
38
B4
9A
64
6D
D3
DD
33
2C
57
AA
A7
0B
44
AB
F1
E1
4E
76
C3
19
9B
56
86
80
51
19
41
2E
30
FA
1E
EF
2E
7A
7C
53
F5
F1
44
56
C3
DB
28
B2
53
9B
BB
18
39
8A
3A
2B
F1
F0
03
DA
CA
A4
DD
E6
54
79
44
60
0F
0B
F6
13
52
58
04
E3
ED
A3
3D
DA
1F
3C
69
CA
D1
26
A1
74
7D
A7
91
18
CA
B8
F0
0D
4E
F7
52
DF
71
AF
2E
B6
C7
10
C6
4D
D9
64
09
6F
67
69
F8
C0
BB
88
D5
D0
30
82
09
A5
45
00
43
10
00
7A
A9
C0
27
92
9D
DA
3C
E4
8F
93
5B
84
41
33
36
FB
F7
8A
84
32
AD
6E
F9
C7
0E
8F
1C
C4
98
5B
61
5A
20
D1
2A
1B
BF
07
89
9E
08
C2
A8
48
9E
01
7E
E3
48
53
78
53
B6
55
69
AF
40
90
90
22
64
B2
64
9E
63
5A
5B
B3
AB
64
23
A6
C5
F3
D7
4B
82
C7
51
FD
89
AD
BA
65
42
DD
98
86
E1
A2
CF
70
0D
F0
7A
4C
C1
D2
27
2C
04
9A
76
67
87
9F
0E
A5
D9
9A
56
52
1A
21
24
02
1A
7B
28
F7
36
AE
B2
89
17
8A
34
83
43
F2
14
E2
AD
90
46
F2
4C
A7
56
8E
DC
65
B0
4E
5C
E7
B6
48
30
50
4E
CD
68
95
3C
3E
F8
70
25
F8
11
8F
C4
6B
B1
9E
9F
69
76
11
C7
66
EB
98
06
D4
BC
2D
55
B1
56
11
AD
DB
0D
F8
92
02
61
AA
2E
89
0D
68
03
D5
00
41
0E
04
16
69
B7
10
62
06
50
D2
31
13
40
09
78
61
D2
CF
90
F3
88
9D
75
7A
63
9B
2B
2A
87
74
17
32
28
40
60
7D
80
EB
98
E6
48
C0
65
A1
62
4A
04
B9
C7
AB
34
FA
81
A0
EE
48
5D
2E
10
68
3C
66
2D
DC
61
BF
6A
F0
A6
1B
12
4D
D2
6B
F3
70
69
DD
10
66
6F
64
0C
91
DE
18
B6
69
78
65
C6
3D
93
74
FE
5A
87
22
ED
43
7A
73
94
6F
60
03
53
2F
DA
44
77
55
FA
2F
02
AE
29
22
B9
D6
98
F0
22
78
E5
7A
54
F0
41
2E
30
2A
6F
8C
49
5B
2C
4D
1D
BD
B8
9A
1F
59
A8
93
08
6B
21
A2
18
8E
DD
8E
79
40
DD
DD
7D
2E
CB
37
2E
3E
59
47
D6
BE
8D
B8
2C
88
97
1F
B2
75
D0
D3
06
08
1B
EE
E5
11
FE
E5
1C
70
B4
09
73
4C
89
A5
CC
91
36
62
64
EC
EB
54
95
15
C4
B2
4A
58
B3
8E
5B
6E
3B
05
F2
4E
D9
03
9F
C7
3B
8D
78
ED
EA
2B
74
7D
36
65
6A
D5
56
0E
24
B1
57
F8
26
96
46
CF
5F
1E
00
47
D9
31
69
E9
CE
D3
A9
63
0D
3A
84
52
5B
D9
B6
5C
A2
4C
31
8B
AD
B1
BA
ED
90
04
24
EB
0C
D7
88
4E
2A
4F
7E
B4
70
8C
2C
A9
32
8C
B3
D2
BE
3D
22
D7
50
89
2A
9A
8B
EF
52
70
62
E5
24
08
D4
20
8E
C0
2C
87
55
D6
9A
28
E9
1E
82
3F
D4
8C
05
62
DD
79
20
63
93
45
92
DC
31
D3
EA
AA
62
EC
0C
A5
90
FA
12
43
9A
08
E9
FA
B2
A1
CF
28
66
4A
A2
7E
E4
97
95
26
B7
28
CC
C0
6D
49
DD
2B
76
16
32
12
BC
A1
BC
77
2E
0E
46
5D
66
84
8D
42
F5
B3
CD
DA
D2
38
95
4A
5B
48
C9
76
32
66
5B
71
5E
1F
58
5D
87
78
28
A3
E8
06
21
9F
43
F7
7F
F9
30
94
89
0B
0F
46
38
AD
79
AB
EB
24
8A
C6
2C
17
AD
4C
1B
47
B8
A7
2F
0C
AF
1F
58
43
5F
E6
7F
A2
78
DB
F2
D5
ED
B0
0A
F1
C4
F3
D5
AC
F2
EE
F7
90
6A
74
5C
46
59
05
D1
D9
3C
37
C0
1F
58
1A
2C
F9
BB
94
67
7F
5C
57
C8
48
7F
7E
2E
BC
F9
D5
58
D6
F0
15
29
3E
EB
30
4E
77
E6
8A
39
6B
AF
5E
BE
DC
61
9E
29
63
80
4B
F8
8F
3D
3E
34
64
8B
30
B1
94
44
F1
D7
33
EB
95
46
83
6F
0A
6F
3B
D6
4D
71
5F
D9
A6
E3
FE
1E
B3
64
E4
B8
5C
A0
61
93
C8
C7
54
6B
29
C9
1B
47
E1
18
4E
86
E0
2A
27
3B
EF
07
7A
C6
06
0D
66
C3
D4
AC
88
81
62
6E
EF
F0
1D
73
C8
96
62
44
94
16
D3
9A
A9
6F
75
F8
D8
05
60
97
21
C3
B0
6C
63
A2
71
32
5A
1E
0F
6B
BB
AD
10
BA
85
31
7F
25
59
2D
62
B7
F7
F4
BE
6F
41
A5
2D
19
35
A1
E1
44
55
8C
79
60
70
8A
64
0E
95
A3
FA
B3
25
DD
6C
9C
33
4F
21
11
35
AE
A7
7A
3C
6D
6B
5B
AD
A6
BC
0E
A8
1E
68
23
74
41
32
D8
13
BA
58
97
20
0A
EA
AA
89
01
B0
7F
C4
3B
3D
21
C3
97
52
8A
B8
80
F2
0A
72
49
40
7D
79
EB
82
45
12
C6
82
41
C3
20
DF
37
4F
4D
EE
7B
B8
E6
CF
EB
9C
13
55
1D
23
D8
22
61
FC
27
FD
B4
FB
C0
79
01
81
7D
D6
8C
C6
D4
13
A0
2F
78
3B
17
59
24
71
F0
46
76
1B
52
F6
34
BE
8F
85
21
23
53
F3
94
9A
62
B8
0E
95
6A
CF
CE
EF
60
B3
C5
A4
A4
45
21
9A
7A
E7
04
57
03
9D
54
69
CB
F6
72
6C
3C
EF
10
BA
95
6C
16
77
A4
AE
5B
64
A6
BF
69
BD
A1
CB
C0
67
D1
D4
A1
30
62
9A
79
B8
A5
38
27
8D
82
D2
21
CB
A7
13
94
17
8B
64
9C
EC
AF
77
F9
41
A3
7A
6C
AF
61
EB
A8
44
6E
F1
E0
C9
8E
C3
18
9C
6B
BF
B0
0C
FC
29
8A
B5
27
79
1F
4A
9E
1C
8E
1D
CE
8D
CB
31
3F
D2
09
63
46
90
EE
DF
6A
E2
27
D8
A5
B0
04
48
C0
A3
E9
92
5E
97
CB
9A
B3
0D
26
45
49
4E
B0
D7
54
9F
B2
E9
8E
CF
00
2C
CE
2C
9B
07
5A
F1
5E
4B
DE
95
A5
2A
20
DD
92
BF
9C
C2
9D
56
33
DD
95
4D
28
1B
B2
0B
AD
14
F3
89
FC
70
DF
1F
7D
30
26
82
3B
7D
84
C1
9D
A0
F2
38
3F
61
22
C0
A4
29
26
E4
B7
56
00
70
CB
1F
A4
8C
16
25
EA
4A
28
8D
01
C8
07
96
81
13
0B
D9
EC
B9
A7
18
41
29
1F
9B
81
7B
93
44
9D
85
46
56
75
88
1E
DF
45
72
7B
3A
27
10
5B
FC
FC
14
DE
4C
D6
4A
A6
4D
8F
6A
68
08
CE
6F
48
99
66
E7
C1
98
8A
34
FC
E9
F0
C2
4B
39
D1
48
86
A4
5C
59
26
1C
22
B6
CA
F0
84
FA
9A
E8
2D
FB
3B
50
30
76
6E
E4
4B
47
CE
0D
F8
9F
C3
6B
A8
F6
44
27
D4
69
74
B0
A1
D1
7B
6A
1D
01
5A
DA
EA
41
11
E4
4B
4B
F9
30
8E
E9
BA
F8
B5
7A
33
8B
0F
0C
63
94
AB
8E
A1
24
D2
5B
69
37
E5
A4
2C
E7
0F
E9
29
63
2E
C8
C9
42
64
AA
22
35
A6
CB
65
A0
40
1E
2C
A1
C0
39
45
9B
15
9A
B4
1D
73
2C
46
BA
0A
2E
CF
14
CE
B5
25
AB
C8
A7
3D
14
AB
D8
0E
32
E8
68
B1
4F
EF
E5
3C
B7
A7
A0
5A
87
45
B2
FE
2C
6D
30
9F
17
AF
DD
06
97
E5
C8
02
C7
60
53
48
AA
B7
61
57
93
69
D8
46
F2
23
A9
D7
4C
C5
5F
FE
85
1A
EC
87
2F
BD
C2
F4
D8
1F
EC
7A
0D
34
E4
D4
2E
77
D3
06
68
2C
0F
FD
0F
A9
B2
B9
EF
3C
1B
83
82
CB
D1
9B
21
4D
D6
BC
EA
4D
45
0E
67
C4
56
FE
26
D8
EC
7F
6D
3E
71
7D
28
3C
FD
91
1B
9F
93
F7
C0
B5
7A
F5
B7
DC
0F
28
9C
5E
10
68
B9
19
39
00
0F
33
68
EB
02
94
7F
34
D9
DE
46
3F
0B
1E
A6
CF
FB
01
BD
03
7C
25
02
32
CB
56
E0
B7
E4
BE
33
2D
F4
67
CC
52
E4
D0
CC
FD
51
9A
DF
FE
26
EC
D2
77
DF
63
B5
0F
01
C5
00
47
D3
3E
28
61
DD
0B
21
2B
B4
2D
1D
2E
F9
CB
70
DB
CD
DE
26
2E
B4
48
08
C0
80
5B
4F
39
62
0B
7A
73
68
80
88
50
38
1E
B9
F8
F4
E1
35
6D
D5
FC
BB
EC
CC
8B
4B
0C
8E
BB
75
AC
BD
F4
BD
10
CE
55
BB
9E
F2
44
DE
7C
C8
67
06
DB
F3
1E
95
73
BE
E9
3C
13
26
72
FC
FA
76
24
8C
82
D9
F5
E6
75
2D
93
5A
F1
8D
B8
D2
A0
51
56
8B
20
E8
AB
94
E6
21
C9
30
17
40
CF
39
57
59
64
16
06
DB
27
63
29
CA
E6
41
6A
46
4C
8E
A6
EF
1E
12
5E
B7
95
86
27
63
EA
DD
CB
A1
18
E3
04
03
78
FB
32
3E
4B
CB
5E
A6
C3
13
D3
07
80
FC
FE
9A
A4
73
11
C1
5E
54
F3
09
E6
A0
66
A5
BD
4E
61
44
42
B0
31
B9
C4
3F
B5
A0
E7
F2
40
E4
3B
D5
4F
F2
81
9F
0B
A3
34
96
50
D7
2D
C8
74
59
35
D9
AA
DB
34
48
3C
B0
04
87
78
A3
33
EB
ED
E0
40
B6
0F
4B
41
49
04
2A
23
8F
0F
F7
5D
18
A0
54
19
80
EE
10
A4
FA
3E
AF
26
BC
4E
39
2B
5C
C7
56
40
AD
8D
69
3F
94
45
BD
68
DD
F9
1C
A7
DE
82
93
E4
69
69
96
E6
3C
8A
42
E4
A9
EE
61
D3
71
B7
CE
00
30
45
84
CD
C9
10
61
8C
E7
AD
AC
3F
B3
04
06
C2
74
9B
2D
36
31
55
7E
D9
47
6B
BE
FD
40
B5
01
C5
88
6C
44
A9
4D
22
14
DB
A8
C7
D1
3A
9A
9B
FA
E8
A1
5A
F2
6D
A0
3F
1B
99
52
83
1D
A9
23
56
83
09
93
4B
31
6F
C7
F6
D5
FD
0C
54
6C
5D
08
86
34
EA
CA
90
71
50
8B
5B
18
4A
7B
D1
98
40
88
0D
39
89
04
4C
E1
41
4D
4A
2A
9F
11
BA
64
44
70
8B
96
1A
FE
35
26
47
D4
8D
8A
DC
54
CA
17
14
28
8A
D8
9C
6E
7D
51
AC
B5
98
AA
80
CE
1A
D8
E2
48
4E
DF
F8
48
19
63
35
8B
8D
F3
3F
FC
67
EA
1D
EF
DE
40
97
03
F9
58
BB
6A
21
BE
B5
38
8F
BF
53
D0
64
43
BC
42
B3
A4
9D
0D
4E
DD
01
78
B4
28
99
3E
5A
5E
4D
E2
88
DA
2A
A5
82
39
48
62
65
AA
64
26
A4
3E
7A
14
F4
24
8B
B6
C4
9B
BA
7B
E4
22
37
20
A5
26
5E
7F
58
72
7B
7F
6F
96
84
A5
34
10
07
E0
B4
5B
54
49
7B
90
8E
02
0B
B2
7E
F9
FB
EF
A6
A4
CC
D2
3D
2A
32
6D
9A
FA
97
83
E7
28
B8
E3
67
CD
08
46
93
F2
3E
C6
41
CC
00
45
67
F9
63
0E
5C
1C
9B
D8
2E
CE
21
7B
41
16
34
D2
94
A9
65
15
AB
C1
DB
D2
09
06
9E
ED
4D
D1
4A
11
1F
44
65
60
71
C8
09
DB
DF
26
2D
FD
4D
20
09
43
08
26
9A
25
1A
AD
47
64
FB
73
F7
1D
CC
7E
F5
AF
A4
9C
FC
A8
55
D1
EB
EC
40
2A
C9
D7
73
16
43
86
E6
56
BD
6F
95
C7
D1
9E
4B
D2
AF
AD
C7
8D
4E
66
75
9C
44
F5
55
1E
E1
9E
B3
A9
44
93
80
E2
E5
D3
25
3D
6A
98
5D
08
87
61
21
48
FB
69
E5
2D
F0
37
48
01
B7
DC
6B
E7
B4
AC
58
7B
A6
2B
64
B7
5A
90
E7
BF
46
B0
5F
8C
E4
9E
1E
57
85
18
70
D8
9B
AC
B4
38
C5
30
C8
B6
33
03
72
2D
CE
03
E6
BA
6F
20
FB
94
72
81
32
67
85
38
42
2E
0B
21
CF
B0
DB
C2
98
C1
5E
93
53
CB
D4
0A
53
ED
05
77
76
AA
88
A0
78
67
1D
C0
AE
EC
27
60
77
F5
E4
85
48
41
CB
F9
05
09
66
03
AB
CD
6F
E7
05
33
A1
EE
B3
C7
02
52
D6
EC
EE
06
82
4A
C2
EA
2B
D6
98
2A
02
DF
48
2D
E8
FE
B9
AF
A9
4C
50
ED
79
42
56
A9
4B
64
65
B9
EC
67
06
32
EE
29
B7
CB
58
5A
1C
1B
BF
91
B3
BA
F0
1A
25
D6
54
08
63
F7
85
9F
04
81
E8
F9
58
75
9C
D5
C8
B6
52
13
A9
4B
D0
52
19
9C
FB
C7
DA
EE
27
44
81
DB
79
80
6C
C4
6A
67
A8
3F
97
16
98
09
91
A0
E4
7B
0D
41
58
4B
A1
66
7B
A3
8B
47
6B
2D
03
B8
FB
74
02
AA
B1
5B
41
C3
29
2C
1C
6D
22
C8
E6
77
6E
F1
70
8A
10
A6
BD
9B
0A
9F
57
CD
4D
D6
45
4E
96
D8
D9
E9
D7
0B
E4
B4
22
F7
DA
60
42
53
C4
B4
B7
BE
9E
C8
A7
EB
C6
DD
13
F4
57
28
84
95
49
9B
9C
35
C0
E9
20
11
A6
56
B0
52
92
F9
B7
4D
95
C3
D4
1D
44
91
8C
8C
F8
84
6F
DE
5A
66
CB
37
A5
20
50
C9
A0
A9
55
50
06
80
40
08
10
8C
53
BF
73
51
B0
D9
DF
13
1D
99
86
BA
D5
48
03
5B
50
44
80
DF
F7
A4
C2
14
F0
4B
C5
E2
02
48
F3
31
12
F3
DD
5D
50
22
D3
DF
FA
FE
12
DF
99
C5
F4
C4
18
74
CB
EF
32
EC
0A
7E
0C
E0
24
35
12
D2
0D
90
37
45
CE
B3
6E
4A
D2
E7
4D
00
D0
F2
C0
44
DC
DB
6D
C3
7F
24
FE
3E
39
99
CA
4A
8F
CC
F5
F5
F8
33
09
33
D3
55
0D
38
91
9A
4B
85
83
CF
7B
38
0C
A0
A9
13
39
17
AC
D5
BF
E8
E1
18
4C
C4
15
06
51
C1
78
A4
D2
27
2B
63
D5
98
85
2A
53
8E
82
DE
F6
23
73
B0
B3
D1
D5
59
D6
69
4E
53
38
E2
CE
2E
89
F9
08
CC
99
27
53
BD
32
87
EE
DE
86
DD
FD
BB
60
9E
71
C6
29
98
6C
39
E6
FE
A8
24
56
B1
22
51
80
2C
C1
8B
DC
C8
31
CA
87
C4
44
21
A3
B7
0C
D1
83
5B
22
48
D5
B1
4F
18
0A
4C
88
03
81
37
35
1C
54
50
6C
8F
94
13
4A
E1
AD
CF
85
E4
90
F9
E6
70
04
AB
AD
4D
63
CC
45
F5
3A
3F
CF
BE
E6
50
12
0E
CE
8C
6F
35
C4
92
C7
09
59
94
67
A0
DA
5D
2C
2B
8A
A8
99
74
23
CB
EA
91
CD
66
39
06
34
C3
BA
AC
81
05
6F
F0
66
7C
05
BD
4B
DC
D7
17
D4
66
A9
3B
68
CF
29
18
25
E5
84
49
38
7C
AE
4A
C3
89
29
1F
21
B9
EB
2F
3E
6E
01
A7
1D
C6
3E
98
7E
18
C2
4E
0C
F3
92
20
34
BF
44
60
07
13
E5
F6
D7
0A
4A
45
06
73
70
E6
43
34
AD
8C
A5
AF
D2
22
A2
A2
AE
E8
49
52
74
5C
2E
3E
99
90
69
F7
5D
E1
5F
78
31
94
B3
26
52
E9
34
5D
9E
92
BB
8C
6A
45
40
44
D4
11
D8
EC
4A
9D
40
23
C7
30
AC
5B
70
6B
D2
E0
E4
4F
83
36
C0
6D
38
08
9F
51
E0
84
4E
5F
27
A8
08
61
F4
C3
C3
49
68
6F
40
DD
E5
E6
79
1C
DE
16
C8
D2
4C
C9
A4
1B
4D
8E
CC
AE
DF
90
4A
B8
99
E2
E2
AD
EA
71
A8
E6
0B
EB
C7
8F
88
D6
31
D1
3A
2D
54
CF
8F
E0
84
96
10
06
1D
50
C1
1F
14
11
42
98
FE
46
D6
21
A0
C9
87
4D
D8
05
11
55
CA
AD
AC
4F
42
24
08
A7
E9
A0
3A
C5
77
10
6E
78
7A
0C
F8
22
74
86
90
CD
E8
2E
6C
E4
A0
3C
26
47
35
6A
D7
66
80
CC
64
7C
03
F9
BD
AC
36
E6
F4
E1
56
B0
AB
F1
D3
0F
81
2C
52
84
43
3C
63
EA
C1
F0
D7
03
7E
BE
06
A2
78
C7
CA
6C
94
9F
CB
05
B3
70
96
26
C4
43
8F
64
01
E5
5B
55
ED
91
AC
84
AA
00
F3
93
24
9C
09
35
04
D5
02
09
7E
12
6A
FA
06
C5
E1
33
A9
3F
72
ED
2E
F5
D6
F1
0F
7E
2F
38
43
A9
CB
2F
19
67
4B
62
C9
D3
D4
5F
7F
A7
99
28
F6
23
6B
25
17
82
E5
0B
37
22
8D
4E
AF
1E
9E
F0
20
C7
00
84
88
7B
AB
EF
00
C9
D9
F5
88
F4
86
81
E2
E6
F6
78
8B
C3
53
26
BB
D8
BC
7C
47
99
02
05
98
22
F6
4F
67
40
B6
5F
59
98
52
DD
0D
04
D5
CF
1E
7C
BD
D0
1B
24
DE
95
4A
EB
5E
5B
78
47
E5
AC
B6
EB
B7
36
BA
6A
79
D1
6F
4F
23
2D
1A
E7
2B
89
25
B0
4A
35
A8
78
A0
3B
83
AA
1C
68
D0
4B
43
B4
0F
BB
E6
E9
96
88
CD
E2
92
F6
C4
33
C5
61
35
0A
FD
BC
DB
60
12
94
31
15
BD
E4
99
63
CC
42
62
D1
10
04
68
AC
D3
9D
00
0F
4E
1D
CC
57
DF
42
2B
03
30
3C
05
E6
E6
5A
3D
66
A3
1A
2C
C0
64
8E
B5
66
5A
14
1E
D4
32
6C
42
BE
C1
5F
97
AE
B2
A5
C8
2C
94
BF
19
4C
27
D5
28
98
85
4D
0E
19
6F
F5
B1
2B
8A
E5
32
14
BB
88
C7
22
A2
E1
5E
9C
B5
22
E4
40
66
8A
D8
13
9D
3E
A6
D7
5C
9C
36
17
C6
93
AC
E4
19
72
B1
78
F2
83
8A
B0
D1
0C
35
93
35
0B
A8
AB
CD
C7
D7
1F
01
7E
18
50
15
78
C7
B0
4B
0A
C1
86
08
6B
7F
21
6E
54
92
1A
2D
73
EB
85
B1
9C
54
1E
7A
10
69
2B
21
AF
77
36
60
6E
DC
65
F2
7F
CB
B6
76
86
75
AF
F9
A2
04
14
EE
E9
BB
0A
73
9B
A4
E5
81
60
73
4A
6D
F3
3A
0B
4D
9D
70
EA
60
B7
9D
2D
58
44
C4
C7
C3
7F
6E
F3
59
3F
21
83
07
18
F4
A2
A6
49
34
7A
2B
95
FA
83
B7
F4
EF
5A
8C
F8
7B
0D
20
C1
0F
19
1C
6D
4D
F1
56
6B
C3
67
69
78
D9
32
4F
96
92
A3
8D
ED
9C
AD
99
C5
91
90
60
7F
9C
6D
70
8C
08
A6
3E
03
AB
E5
4E
CB
41
5B
30
43
58
D1
D1
F4
8F
D2
95
93
76
49
3E
49
FC
5B
97
99
FD
8F
C9
F6
41
17
32
8A
0D
24
E3
B8
59
E6
CB
2C
15
F1
68
80
43
5F
05
B4
8F
56
CE
EC
EF
80
AB
7F
6C
C1
F2
8B
62
26
69
A2
3D
80
0D
D1
35
4B
50
54
D1
83
68
11
E0
06
47
4F
DD
37
50
81
80
B9
22
4D
70
BA
20
DD
13
49
F3
A8
78
9C
66
2A
E0
CB
13
D9
2A
E6
B9
90
7A
31
0B
82
F3
E5
B0
23
98
5E
C4
F0
0B
35
F1
8D
AB
DE
0B
10
4F
7B
92
B8
96
BA
4A
FD
9E
D4
0F
8A
2D
24
4E
68
A6
60
B8
A8
A0
15
7F
95
D5
85
D8
51
32
F4
87
1A
59
14
E6
50
13
B9
56
49
8F
6E
49
FB
B9
B8
6F
FC
38
81
50
84
6E
CD
4A
91
52
99
B9
22
1E
72
8A
86
A3
86
B6
73
75
09
52
4B
2F
12
C7
D3
83
05
90
E0
B3
99
DD
F5
04
1B
8C
64
FB
43
E5
0D
9A
88
6D
C6
4F
A8
D3
6A
2C
E0
31
85
43
34
A4
32
10
D7
58
C3
43
06
CF
B8
FD
07
9A
16
A8
49
26
30
92
9B
12
1E
03
98
10
62
CB
0C
0E
BD
53
21
30
4F
0E
73
2B
5D
6C
E1
77
9C
E5
DE
B1
4C
80
29
E8
5F
D6
6B
98
7F
50
DF
DF
8A
A2
03
F4
71
90
C4
ED
CD
9A
61
57
DB
BF
08
7E
8C
75
EF
45
85
1F
ED
14
DE
2D
F4
91
4B
8C
84
F3
24
31
D8
75
55
0B
5B
62
84
69
AA
D1
AE
B6
4D
9A
FA
96
5F
94
CB
F9
14
88
45
D6
0F
78
59
76
4B
04
8B
27
10
D4
5A
D7
5E
F0
B5
94
76
B5
03
EC
C6
51
66
FD
7E
68
9A
6F
C6
0F
51
9A
77
DD
7D
3E
60
58
46
11
07
C9
70
83
87
3D
34
AF
9C
02
75
D8
41
C0
9F
8F
D5
D3
48
E8
A6
04
A7
07
86
5F
89
69
62
D0
F0
AE
CE
30
DA
D4
30
9D
05
DA
74
07
ED
27
22
78
C2
BD
2D
35
1C
0B
3D
0D
30
13
06
C3
BD
EC
EC
38
FD
EA
DC
49
25
84
78
C3
74
7A
61
4B
EE
74
63
6D
20
D4
DA
32
37
20
09
BF
41
5D
9F
97
35
8D
F5
13
01
06
C3
88
90
5D
C2
BB
91
25
D4
88
85
14
10
51
56
2C
AD
E9
4E
B1
DF
A4
75
64
47
F0
A0
FD
6E
C6
34
EF
92
DF
30
2A
AF
B8
70
31
E9
F1
1C
BC
48
DC
38
4C
2F
39
88
42
63
4D
FC
63
DC
08
9C
4E
C1
FC
53
A4
2A
28
5E
B2
08
01
46
36
42
82
69
41
CA
BB
ED
B7
44
EC
14
DF
57
59
67
56
1C
A3
7B
51
8A
FC
42
1D
87
C5
A8
65
BE
43
9B
11
C3
F7
07
02
66
B8
5D
B6
D0
79
A2
11
69
12
63
45
7F
C2
E2
AA
09
30
20
F6
28
1D
91
BE
6B
7F
0C
63
56
D3
53
E3
39
96
1C
91
8C
45
72
6E
B5
7F
5D
5E
5D
25
E0
33
9F
3B
18
9C
27
16
51
1C
F5
34
48
21
A8
1A
4C
D6
08
D5
3C
28
28
01
25
A7
93
FE
3E
5C
35
17
45
E1
9D
39
70
DB
5A
F8
4F
09
B3
37
CA
E6
4A
F2
BA
AA
DC
FA
96
57
C1
C2
FE
2C
DD
EB
F2
8B
CB
86
1E
1E
2E
50
36
E9
E2
AA
DF
6E
10
72
85
B3
7E
2F
B2
B4
43
45
97
FC
7A
AD
DE
EB
F0
F1
EC
37
C8
19
BF
B0
8C
A0
FA
55
2E
8C
13
0E
4A
25
00
35
53
1C
44
2F
1E
4E
00
F0
61
AE
0C
93
FB
60
5C
EA
E6
D8
50
BC
81
42
CA
ED
D8
64
DD
D6
8A
40
61
32
16
D0
84
F6
89
47
87
64
FB
8D
7A
06
2F
39
86
ED
F2
AD
FD
9D
91
B5
4F
8F
89
BD
1E
AF
15
01
E0
25
32
EC
8E
2D
B6
52
10
1C
CD
1A
C6
7B
7F
23
ED
FE
72
B9
E3
B9
BA
0E
90
8C
12
14
27
4B
7E
30
CD
59
29
CE
B3
D6
20
D8
D7
DF
CB
48
42
BC
BA
30
31
D4
CC
C8
F5
15
02
FE
A5
E5
E7
A7
EC
80
0A
05
8B
57
B6
EC
56
ED
D3
CC
A9
BB
2C
22
E7
60
73
65
79
D2
9E
C7
99
2E
46
97
69
6B
69
AE
29
4F
8F
E6
61
C9
FC
00
6A
07
86
CE
31
D4
95
77
C2
2B
13
C0
99
FC
22
AC
BD
EE
53
EC
F0
62
05
56
5B
AE
6B
97
E6
F4
7F
BF
1C
A6
72
48
13
29
D6
59
D6
A8
CC
31
D0
09
7D
24
A7
F5
77
47
6E
FB
3E
BD
24
B3
9E
BC
D3
CD
00
EA
2B
53
7A
31
4A
6C
39
F9
D0
49
07
67
FA
27
3B
8F
83
C5
FA
17
23
AA
49
A0
39
98
EE
A7
EC
00
BA
79
4F
F0
4C
06
DE
70
CA
20
81
A9
FC
A4
CE
A3
3E
6B
F8
2E
A1
14
0E
6D
BC
F3
18
60
1C
90
78
8E
75
33
0F
C6
94
B7
FC
E8
52
08
8B
9E
45
DF
20
7F
5E
79
88
01
B4
F1
CC
7C
82
30
F2
08
AC
BF
97
A5
96
33
21
3A
4E
B2
D5
AB
D0
EF
E7
19
3D
93
CF
CE
82
33
53
68
43
47
85
F2
A5
90
D0
72
AC
94
2F
16
AB
9C
2D
A2
F3
7E
43
13
88
28
49
CE
23
11
FA
2A
29
09
DA
2B
20
31
A4
F0
28
DD
8A
94
0B
05
12
53
39
68
83
16
BA
89
BB
1D
CE
47
B0
18
5E
E2
A8
94
34
C3
22
3A
9E
4C
5A
12
5A
EB
E0
D7
9F
B8
7B
72
67
54
78
B3
ED
A5
70
E2
79
72
9B
11
D6
7F
14
2F
E0
D5
B0
37
80
F5
6C
BE
9C
AF
2C
FD
15
04
77
24
5F
A2
77
B7
F7
C0
79
0D
2C
2E
13
EA
E1
3E
40
F7
51
24
D7
30
F4
BA
95
D1
C6
89
C1
29
F4
EE
73
24
78
25
36
EA
05
8C
4E
2B
26
B8
C7
E2
68
8B
92
96
61
A0
A5
E7
A3
0C
8B
6C
13
58
63
57
52
79
3E
1D
71
42
5C
0E
D3
11
DC
E5
F1
97
84
FD
09
F8
92
1A
A1
C7
15
3B
25
45
AB
97
52
E4
FB
41
82
E5
0E
46
9B
22
F5
E3
7A
91
CA
8C
04
C5
79
09
A5
42
13
30
48
D2
D0
F1
70
EA
D8
0D
20
9B
BC
86
4F
B7
E4
EF
28
C8
B0
00
01
3D
16
DC
62
A0
78
66
7F
D6
20
86
9E
AE
32
AE
44
3A
99
62
42
D7
E4
EF
54
B5
95
6A
8F
B4
DA
A1
B0
39
C7
BC
97
90
D3
E4
8D
79
2D
E4
0F
59
59
FA
84
BA
59
D1
A1
E2
27
78
62
D8
74
F1
78
27
A6
61
6C
1B
7E
2D
5E
8E
62
BD
5C
C6
2B
E9
22
70
DF
E8
96
0B
38
7D
CA
20
B0
4D
3E
D5
55
49
08
F6
07
A8
0C
FA
B6
01
FC
30
DB
0F
AF
75
82
B9
76
AC
F8
1F
37
08
61
5B
A9
03
BF
6D
00
AC
94
D9
78
5A
87
91
19
EB
73
6B
CE
C6
4A
8D
FD
B5
E8
9E
58
EE
3B
09
02
4F
B5
72
9D
A4
35
2E
3E
E9
71
E2
CA
78
4C
4A
00
25
91
B2
40
A5
7E
CE
FA
3E
45
7E
6E
41
C0
2D
31
33
C5
4D
35
10
5F
5A
B7
9C
18
E8
3D
44
2E
0B
88
E6
92
A6
F0
E8
88
64
63
51
CF
56
1E
1C
F0
DF
64
18
62
D7
E0
74
39
82
F7
1C
33
02
8D
7B
CA
F4
0F
2C
2F
C1
4F
55
1E
00
B7
64
63
EC
44
64
72
3A
1F
BD
A1
68
09
9C
DB
34
0F
96
C6
C7
24
FE
51
CD
1B
09
BB
03
02
E2
A7
79
60
0B
F1
C1
38
55
E7
D0
39
16
AD
DC
04
06
22
AF
3F
84
D0
C9
6E
8B
37
D1
87
15
41
48
AB
86
96
9C
CE
BE
72
3F
32
88
00
BD
5E
74
D8
6E
EF
87
4B
51
A1
85
2B
AC
35
E7
AF
AE
0D
44
8C
13
DC
D4
A4
16
3E
4B
B5
92
DA
FE
1C
BD
B6
7F
B1
18
B2
72
50
ED
A2
FC
A0
4E
98
E0
BB
0D
54
BE
39
29
AE
F2
81
33
09
84
96
CA
3F
F2
10
10
58
2A
E4
F1
44
14
14
1C
14
77
48
21
3A
E4
84
58
09
A4
E0
F1
8F
81
A9
E5
BA
F6
B9
72
3A
2A
09
D1
6A
0F
AE
F0
A7
B1
F7
57
63
40
EE
43
BE
53
90
AF
E2
AE
DA
2F
2C
B4
A6
1F
FC
A4
A5
20
9F
BA
6D
2F
80
18
DB
A1
5D
25
1F
5D
BA
BC
98
EE
24
BE
F3
56
66
78
52
42
57
12
EB
30
D3
04
10
97
A3
43
FC
57
6B
93
37
C7
E5
3B
F5
64
60
21
94
CB
76
00
D3
0A
75
52
71
A1
D1
CB
31
F7
3E
BF
21
C5
71
EB
E6
D7
4A
86
14
DA
FC
54
B8
19
03
8D
C7
E3
67
F1
D1
27
01
14
0B
6A
00
BB
C1
5D
EE
D3
DF
47
54
EF
9E
E2
D9
5A
00
52
18
4A
58
49
D1
BF
1F
F0
C0
57
00
A2
1A
EE
53
4E
9D
06
D9
8B
A4
9B
51
30
3C
67
24
65
79
84
33
EB
81
35
3F
7F
78
93
A3
38
C3
8E
CF
44
2C
B9
A8
2E
8B
08
2B
A5
68
49
56
7C
D3
26
82
FB
8F
80
75
DE
3E
84
F2
7F
EF
C9
2B
02
F7
1B
B6
10
56
07
27
EB
84
1B
8F
14
2F
4D
1C
9E
1A
3A
DC
8F
5C
0B
1D
C9
34
0F
55
A1
55
0E
B8
9A
A8
B9
94
33
A0
8B
60
49
54
DD
BB
93
E4
FC
56
19
5C
2D
80
CD
5B
79
F0
8E
9B
9B
94
F1
CD
BF
A5
EE
68
9B
43
B2
81
9D
AE
96
41
41
FD
43
39
A6
71
98
DB
BD
F8
3E
B5
C1
11
B3
96
6D
3E
A7
14
24
FC
EA
F9
2D
09
53
BA
74
35
E5
CE
05
C8
8D
1A
CE
21
EF
55
CD
06
7B
81
85
D4
8E
F1
31
52
C3
93
19
99
3C
4A
6E
06
07
4B
2B
31
69
02
72
D4
F8
60
A6
97
75
4E
AB
F5
61
75
B6
9F
96
B6
2A
36
99
C7
F5
1E
4B
5F
C2
E5
F8
EC
C9
FC
7D
B6
5B
EB
84
68
C1
A3
18
81
6C
82
31
9B
1A
A6
FB
CD
F7
94
63
A5
63
D3
3F
D9
C7
05
A5
ED
47
47
4F
95
BC
6A
D3
4A
C6
9A
BF
29
E7
58
3C
AA
30
27
2F
9B
A9
08
AE
5B
19
DE
3B
6A
F2
EC
0F
AD
69
5C
BC
66
F4
9E
4C
F3
A7
D8
5E
31
CC
C6
75
1C
5D
ED
00
CD
50
4C
31
98
D6
5D
22
69
09
AF
D5
35
7C
25
2A
32
59
02
FB
44
41
0C
FA
48
34
43
F0
32
31
C7
DC
61
A1
08
1C
54
C0
17
68
88
D4
BF
35
37
4B
7B
99
D6
D2
4F
EC
7E
68
5D
C5
44
5D
73
55
82
4C
92
7C
78
0E
B7
C0
1F
78
0C
DA
DE
4B
B8
4C
25
FB
1D
6C
F3
E3
4F
8F
34
4A
3E
31
16
DA
2D
DD
4F
24
0F
45
7F
C4
E8
D1
77
0F
F9
73
28
15
1C
C1
A5
84
43
EF
8E
32
95
A6
76
21
49
A6
C1
53
8B
24
15
44
69
53
17
91
D6
AD
0A
7F
A7
AC
BE
5E
E9
10
6F
DB
6A
4D
FB
CF
55
30
BF
2F
D2
7D
0F
6F
0D
A9
8B
7E
58
0C
20
AC
C4
4D
90
1C
46
37
34
07
F8
6D
64
4D
F6
B2
49
3F
80
EC
59
5C
4F
47
40
E6
7D
4F
6F
1A
C4
F5
55
CD
2A
AE
4F
35
83
1C
9D
0B
58
2D
5A
DD
9E
CC
A6
17
2C
5A
13
DF
54
82
5B
8A
CA
BE
21
C7
31
F4
62
15
DB
07
E2
79
C8
A9
68
AC
CC
53
17
9E
82
1C
8C
9C
F6
AA
2F
8B
FA
7F
D7
D0
04
86
CA
3B
6D
94
B0
11
C9
1D
63
D4
92
BC
48
31
57
0C
94
FB
44
87
ED
3F
3C
50
B6
CC
60
A8
0B
28
D5
D5
4E
E1
40
4C
76
23
A0
88
78
E8
A7
F2
19
57
0B
3B
6A
CA
09
51
3C
35
F5
F4
EA
B5
18
A2
3F
AB
67
28
02
46
46
CB
45
A1
E7
92
93
0F
D7
A0
72
2A
A3
4C
15
C4
98
BA
61
A6
6B
8A
BF
41
FC
1A
DF
5A
CA
DF
24
AE
0D
A9
9A
D7
30
ED
88
AA
26
C5
78
4B
0C
96
6F
B2
1E
BE
46
2C
9E
2F
5E
8B
1E
6A
AD
09
30
E9
ED
F6
4F
E8
9A
2F
88
2D
A7
FB
00
4E
63
C1
C8
1B
59
AA
82
8A
C2
E0
62
FC
71
37
91
D4
69
09
4A
97
7E
0C
15
A2
D2
FD
67
D4
7E
36
81
8D
75
63
A9
8D
4F
7A
1F
A9
DF
55
CD
DC
21
DD
CA
89
64
ED
55
59
D3
05
2E
DC
EE
A5
79
7C
D7
18
87
4D
04
3D
52
59
13
34
70
D8
11
3E
4B
92
BD
85
6D
12
E7
35
49
01
B5
6D
05
76
5E
6F
49
B5
E9
77
03
6D
B9
47
D2
CE
26
A6
FE
98
4A
86
29
9C
C2
11
83
27
30
4D
3D
28
2E
E9
DB
23
2B
98
EC
03
12
76
71
55
22
8E
A9
14
40
1B
C7
0D
7E
BF
69
D9
AB
61
ED
01
A6
EF
A7
B7
5A
1A
2D
06
8D
96
08
B6
23
E8
01
9C
BF
53
A1
2C
98
A5
F6
FB
67
9D
A9
56
35
F9
A0
49
01
D3
F1
B5
5B
7A
F1
55
83
06
86
0A
6E
07
84
5A
E0
BC
5A
D9
7E
69
0A
14
5B
5A
47
72
D6
BB
0D
B0
A2
D1
70
B0
55
78
93
67
4E
40
DC
B0
E8
6A
A7
74
DD
D1
66
77
D3
1E
90
8A
48
B3
10
02
7E
9B
AF
96
F9
AB
0E
5A
EB
AC
FE
DE
80
F2
5B
0B
03
87
E8
9F
96
21
2D
DD
F4
9A
C4
3D
F5
8A
B5
65
C1
68
A0
1B
9A
A0
B1
4A
F2
DB
A2
63
73
8B
0B
4E
8B
8C
44
91
C3
37
5A
3D
B3
66
4C
E2
9A
1D
22
AD
93
E0
C2
2E
B8
F2
8C
C1
5E
7D
93
4F
B4
01
4B
7D
24
27
9A
17
B4
64
FE
86
11
8E
8E
0A
89
C7
2D
6B
AD
73
12
0A
C4
F1
C0
92
DE
4A
78
93
F1
4D
51
0C
78
16
48
D5
0F
46
8E
26
50
5D
6C
7B
03
EE
D0
7D
4A
93
15
59
9F
1B
4F
D5
A8
02
17
24
4A
54
A0
72
E4
D7
8A
80
67
61
AC
59
6E
31
E3
46
C1
86
5B
AC
BD
4A
AD
90
60
3F
4C
1D
02
1B
4F
EB
A4
06
44
9C
39
E0
A7
F1
C9
39
E4
02
AF
3A
F3
79
C8
28
D4
6F
93
00
89
94
8F
0D
08
5C
A6
B0
C4
E2
5D
19
F4
6E
5A
39
FD
57
A3
04
9B
DD
3A
AE
4D
B6
09
BA
06
76
EF
08
50
0A
E5
60
4F
C6
4E
7C
74
68
91
57
64
E5
BA
AC
B5
3C
A7
81
7E
BA
6F
B4
50
BE
87
0F
12
C7
52
AD
A2
3C
FD
84
20
EB
93
CE
EE
36
F4
B2
34
49
DF
58
03
73
AA
F1
2B
59
B1
DA
41
00
52
BD
BF
4E
61
05
C3
D3
90
47
96
CB
FC
FE
1A
5A
7F
9B
08
64
65
79
1C
20
82
70
73
A1
A4
6C
32
51
1F
6A
4C
2C
83
29
7D
7D
5B
D7
6A
8B
C7
9F
AD
E6
85
AE
41
AE
AF
B2
49
B4
7F
A1
D5
1B
21
42
59
72
36
D9
AD
A5
02
91
DB
F2
E1
57
3D
54
54
B1
3D
60
AC
0C
42
C6
F9
BE
88
F1
C6
F6
1B
65
89
42
25
D0
65
DA
8A
3B
68
B3
A9
67
54
44
D7
50
13
B3
05
DF
9D
E3
60
1E
0D
45
2C
19
8B
07
C2
72
B6
82
7F
A5
D1
78
4B
ED
15
E0
03
93
2E
43
18
6D
81
A2
F4
5F
44
C6
63
E7
D0
CA
10
96
30
84
D5
F8
07
09
75
A3
6D
D1
63
B0
01
76
61
E5
76
BB
74
3E
E0
1C
5D
7E
D2
CD
F6
75
99
35
64
7D
C6
00
E8
5B
46
E6
2C
2C
39
D5
6A
DE
66
52
33
75
9E
F9
62
BE
5C
22
03
1F
C5
CA
01
C0
15
87
54
B1
74
97
06
30
76
88
95
6A
0F
98
7A
1C
62
4B
0C
0D
00
A9
13
C8
3F
E4
EC
A6
4C
A9
9E
56
D1
BB
C5
78
43
71
F5
FB
30
EB
3C
DB
EA
63
D0
DF
99
9C
7F
D1
70
2A
48
95
85
E9
96
39
DC
D0
7A
9F
00
5D
F9
F5
5E
CA
42
CF
FB
87
59
B9
B0
67
4A
DA
91
A3
27
45
EC
57
8F
4D
69
C1
00
43
C7
6F
48
D3
5C
DE
AC
50
A2
1B
63
7E
C3
65
9D
89
7F
81
4B
9C
29
EF
D1
BE
10
71
F8
55
32
C1
69
AC
39
99
5D
7B
6B
34
11
4A
F5
C2
3C
4C
41
55
3D
2B
56
D1
11
DB
8F
0A
95
8C
5C
8B
3A
AE
78
5A
B2
2A
20
11
EB
CF
83
F2
D4
B2
C3
8E
26
6B
96
75
A1
57
F6
39
3B
10
6A
6E
B8
15
77
B5
C5
95
41
C6
8A
C1
67
EE
48
1D
AB
9E
3A
22
7E
0E
C1
31
FB
C3
21
C5
3A
3F
F7
A7
59
D0
B3
B1
4C
D5
73
7C
99
45
63
45
E7
A2
52
3D
1E
52
F5
40
8E
8B
18
B8
73
0F
C6
36
1F
30
BD
89
2C
BB
F3
86
C4
DD
39
D0
F2
21
29
3A
F4
75
93
70
14
AE
0E
63
66
56
12
21
BF
FC
07
E1
08
1C
95
70
BF
CA
D1
5C
FC
AD
DC
F8
59
A9
93
F0
5D
BD
3E
FB
23
7C
8F
C7
85
AB
16
D9
4F
F0
51
57
C1
1B
78
81
05
55
12
24
5D
2A
2A
2D
8E
F8
36
BA
7C
5C
6D
20
98
AA
8A
70
84
6F
6C
5F
93
2D
A4
99
64
CB
F7
05
03
16
6B
56
7B
33
8C
F7
61
13
3D
B4
A5
2D
E2
D3
8D
D4
37
F1
67
A5
52
A3
7B
D4
24
F7
81
33
73
4A
81
7E
B9
06
D7
70
1C
53
82
88
A5
EA
86
F6
E3
97
DB
D7
2A
7B
80
1D
83
34
17
2F
C6
A1
32
06
E6
63
E7
88
FD
6F
AB
7E
A5
EB
BD
2F
3E
C0
C8
4A
A8
A1
38
8E
02
C5
AD
14
3B
86
6A
D5
A6
12
9E
49
3E
D9
4A
18
F5
9D
1E
BD
12
F1
29
40
69
23
6C
A3
E4
82
3B
6A
38
AC
AD
5E
0D
D2
BA
CC
FA
B9
A9
1D
BD
56
FC
6B
85
D3
D8
44
E6
45
F4
08
C1
39
64
30
B6
18
CE
37
4A
0D
FD
96
1B
8F
3C
14
DB
B0
E5
78
07
DA
02
B4
EE
F6
23
2A
5B
FE
B1
32
FA
6F
04
75
2A
5C
41
60
B7
AE
31
55
CB
16
46
4D
25
8A
58
66
27
FA
B4
90
01
39
AE
93
E7
37
AC
6C
77
FB
B4
17
ED
DB
F9
7B
DF
E8
1C
B3
CC
61
16
9B
84
0E
91
41
F9
9B
AF
5A
36
B9
8C
B3
CD
78
40
8A
B2
5D
E5
A1
44
02
C0
39
16
9D
11
E3
BC
2F
2E
55
BB
5B
B9
F3
E9
88
88
A3
F1
50
5A
2B
32
C4
93
74
54
3F
5E
24
75
B7
D7
EA
54
D2
14
2D
39
C5
F9
90
C7
C2
2C
A8
3A
6F
6D
C6
F3
EA
8A
A9
2B
B6
FD
E5
79
F2
20
37
9E
A5
73
8B
6D
72
56
A1
A2
83
0A
A5
F6
55
36
70
03
08
FD
14
95
9F
0C
37
50
3A
71
D4
BB
63
AA
9F
20
69
B0
AA
AB
53
E3
05
53
4F
1B
CD
C8
8A
C0
EC
F9
D8
66
C3
CF
DD
47
31
13
F9
DA
D7
0B
A4
A1
89
7B
4E
18
34
4A
92
F5
D3
0C
63
08
06
52
AE
A0
46
7E
5F
0D
52
35
05
90
1B
6B
24
64
ED
9E
C5
4D
47
74
1F
59
E2
C4
3A
AB
76
A7
D4
C3
36
DD
C9
F3
E2
EC
93
4B
3C
FD
E2
4A
D9
A4
55
15
91
DB
B8
48
3B
F7
A0
D0
42
C2
38
F5
26
09
40
88
18
60
C4
B2
C5
BE
11
EA
2A
34
6F
1C
F3
D2
4F
28
EC
05
6D
BD
3E
FC
52
54
74
B4
32
5C
4D
D5
37
39
43
03
DB
BA
71
DC
1B
E6
EF
B5
2D
A4
04
B2
E5
A2
43
0E
7C
20
A4
D4
13
10
55
0B
17
2A
10
16
F5
FE
EE
39
43
55
3E
A4
B6
99
D0
AA
28
F4
BC
59
C1
CC
B8
88
D9
64
8B
E3
4A
73
1F
A2
E3
68
D8
AD
A3
E6
64
F7
DF
A4
99
03
43
8F
51
F4
34
0B
A3
A6
F9
DE
E0
01
E8
B6
1C
E6
C5
FD
46
D5
99
1C
A4
D9
C6
71
D1
05
5F
20
03
E8
21
A2
DD
88
69
91
03
A8
EB
77
22
B3
65
F6
E2
17
EB
63
83
79
CB
83
F5
6C
07
CD
CC
C2
B1
67
09
B8
D8
CC
68
D8
8F
9E
28
EC
01
1F
6A
27
71
1C
D0
8D
3B
39
FC
08
97
BE
AD
59
2B
37
C0
09
1E
33
08
4C
21
2B
5D
19
8D
4D
E0
3C
E6
F8
A0
FD
85
4A
CE
92
F1
D0
C3
BB
3D
0F
45
A5
86
74
23
CB
B1
02
54
A1
0E
8B
48
1D
7A
27
58
1A
AE
0B
51
A7
C8
9E
82
C9
A7
DA
F9
81
AC
AF
98
9F
F5
EA
CF
66
7F
56
1E
77
C6
5B
78
5E
8D
F7
2F
B9
C2
24
BE
1C
61
04
E7
83
91
EC
C2
6B
3B
83
6A
F8
BC
F1
55
1C
9D
E2
2C
35
1C
D1
80
7A
6B
E7
F9
DE
48
38
08
82
22
38
1F
69
E3
84
54
BE
7F
1A
A3
F4
C7
31
80
13
2E
44
2C
3B
7D
1C
08
64
68
10
A3
39
44
16
51
A4
03
F3
B7
08
EF
3C
C0
AF
49
85
69
52
38
EE
31
94
A6
79
06
68
C0
EA
2C
E0
01
EA
89
63
74
F6
D6
89
F2
B7
90
86
98
40
14
11
DB
31
0A
3F
49
E0
B5
33
96
2D
F5
68
09
E2
1D
6B
E5
2D
C8
04
CC
DF
3A
51
50
FE
0B
D1
62
13
17
9C
60
2A
6F
43
2A
CE
8B
E4
C3
A2
7A
A8
D8
48
BD
80
6C
42
12
F8
5D
E5
1B
AD
93
C8
F2
DB
26
99
4E
F9
80
E5
60
95
7D
41
DA
D3
AC
03
0F
C2
FE
48
7E
B2
DC
CB
61
B5
5C
AE
57
88
D4
4B
17
53
A4
3E
95
BA
97
F6
84
0E
26
A3
08
CF
2B
E9
A7
5F
A4
CA
72
C6
C4
42
EA
51
3A
16
57
EA
88
8D
74
BB
98
C6
19
C0
49
56
E9
5E
E6
A5
52
11
D0
C8
C7
F9
F0
6E
7F
4D
CE
BA
AE
3C
2D
E3
9B
90
E3
F1
D3
1D
CB
6A
2C
06
CB
C2
0F
BE
E4
8C
90
D6
BE
FD
75
EA
3F
02
0A
41
D0
35
F6
65
47
61
51
CF
B0
5C
2A
06
E8
C2
55
24
54
BA
DC
1F
3D
62
40
61
9D
0C
E9
7F
CE
B8
A5
AD
7E
45
CF
53
56
26
AE
58
4C
2D
DD
88
41
AF
76
51
5D
CB
8E
82
86
FA
9E
00
CC
E7
55
76
92
47
37
4F
88
01
B3
98
50
32
44
3A
87
7C
1A
93
A6
8F
21
6B
57
87
61
5B
95
E7
92
EF
4D
82
A4
11
9D
B6
2F
5E
34
52
BB
E7
CD
7C
09
4F
60
FD
2A
FA
41
B6
22
96
12
57
1A
CB
02
F4
67
8C
A0
76
BA
1F
46
48
F9
79
ED
7C
16
4B
E3
8E
DA
4A
5C
11
A2
7A
88
F3
6C
DF
6B
4E
95
11
45
C2
00
88
7E
50
CA
D2
D4
01
33
50
1B
04
94
A9
C2
71
63
78
57
3C
B2
6F
A9
55
DB
C5
7D
9A
DA
2D
A1
8F
88
E3
C6
14
EF
ED
BC
05
59
4E
B2
D3
AA
EC
45
BB
B4
59
B0
DD
21
DA
FE
A2
AD
04
B3
34
B9
B2
B3
C0
B9
41
62
99
F6
88
48
65
A7
9A
13
74
FB
06
B1
AA
2F
B8
E3
C3
F1
CD
98
E7
5F
FA
3D
BC
4B
00
16
C4
59
28
C7
CD
47
5A
C7
99
CC
D4
50
61
82
FC
DA
11
86
4F
71
BC
27
6B
4C
DD
65
2E
68
EE
01
69
49
6A
E8
21
44
07
F8
E3
00
71
0C
C8
B4
B1
CC
90
EC
F9
CD
6C
C3
A4
9C
2E
CF
CA
6E
61
2B
C6
D0
8D
C8
75
20
5C
76
05
A0
7A
F7
85
68
8D
A4
86
3B
42
36
D0
DE
54
02
7D
3D
0C
DD
E0
BC
65
1E
95
CD
6D
49
C8
F5
17
89
E6
77
6B
D4
E8
54
27
3E
F1
13
3A
B9
38
77
98
F2
5A
7B
AB
38
CE
9D
1D
0F
8C
1A
66
5D
58
DF
E1
4D
45
7A
DE
C1
8B
EF
AA
58
65
8F
CB
D5
31
5B
29
B7
99
8A
B3
2B
C3
21
A4
B5
CC
30
06
CB
02
8A
1D
00
15
B8
F5
56
B9
24
DC
D2
B0
32
AF
8A
95
65
1B
7A
63
9B
B5
14
62
BD
73
E4
50
58
48
46
26
10
4F
8D
DB
0D
CD
A1
63
78
76
A0
EB
05
83
4D
E2
87
D2
55
4E
2B
5F
7E
B8
02
12
9A
D0
1A
DE
17
AE
43
0A
F5
DA
3B
86
E1
10
0C
54
BE
63
A6
DB
5E
5F
BE
2C
D5
29
61
1C
51
7F
82
0B
9B
0F
D2
BD
EC
8E
26
42
36
BB
A3
D9
28
48
09
38
8A
CE
8D
E2
5F
C7
16
F4
4C
5A
ED
2E
F2
A5
4D
8A
D7
44
23
28
20
1A
A3
F1
9F
B1
B9
BB
3F
88
C8
D1
34
B6
AF
5D
8D
AE
40
88
5C
C0
BD
90
60
3B
A2
85
76
B0
04
34
7F
F7
12
93
EB
29
51
D5
E9
96
B6
C9
AD
5B
D7
88
CD
FA
A4
45
0C
3B
83
C9
C1
AD
03
98
3A
B3
73
12
4B
A7
F1
6F
D5
12
BE
7D
88
6E
37
FA
22
59
B1
0E
C8
A8
A2
84
DB
1F
C2
F9
D2
C2
40
91
39
F9
DC
11
6F
25
8E
82
36
96
EF
0D
42
2E
8F
EC
8C
A6
E1
1D
A9
B9
60
1D
97
94
15
8A
76
CF
C6
B3
DB
3D
68
F0
85
8B
E4
13
F7
A2
4F
C6
9F
32
59
FB
D7
62
C8
4F
36
7E
C4
74
BE
CC
C8
5C
3C
17
6C
0E
53
A5
DD
25
89
65
C4
BC
24
F6
2D
A2
AD
E5
29
FC
FC
B4
34
0B
6D
BD
44
F7
DB
DE
87
98
FD
08
EB
22
C9
D0
DD
1D
D5
FA
A8
EF
DC
C9
60
9C
E1
AC
BB
F8
16
B3
EB
4B
62
E1
7D
E4
F2
C5
6F
D3
70
D0
F1
63
07
88
10
0E
19
0D
44
08
79
CF
27
06
70
28
7D
46
B5
54
39
30
A4
16
0D
05
55
15
1C
CC
09
2E
80
0B
F9
6D
12
BE
71
2F
9F
3B
14
E5
CE
DB
3D
AB
6F
32
38
E6
B1
AA
35
22
5D
07
3D
56
B2
39
6B
5E
16
15
14
1F
69
37
5C
AA
1C
83
54
2E
4E
48
B7
1F
56
07
7D
25
4F
0E
EA
ED
EC
3F
48
B4
74
53
8B
00
70
0E
69
DE
1D
2B
3F
18
38
5D
D8
BE
2F
78
8C
8D
8F
D5
DA
B6
07
68
56
31
BF
DF
6F
82
99
73
9D
B4
4C
3F
5E
2D
70
11
86
16
29
9A
E9
65
C0
6E
CB
7F
DC
B0
FC
79
E5
F5
D5
7D
0C
A7
29
F5
35
20
92
60
4B
3B
75
10
D3
E2
05
FA
05
90
64
16
C5
DA
A4
BC
15
4D
D4
9E
74
B9
15
25
1D
C4
91
47
01
8F
F2
1C
1C
E2
27
2D
AF
AD
37
BF
8F
C4
76
A4
20
ED
05
9A
0B
54
30
FE
41
8C
9E
7C
76
30
D2
16
8C
A4
00
E4
EA
34
2E
80
4A
B4
13
D4
03
CA
E8
FA
86
0A
CE
D6
B4
E4
0C
BA
65
04
69
7F
2F
BA
8F
6B
A2
35
B4
B6
EE
B5
24
20
03
56
EE
1B
CE
B3
78
12
06
F3
E8
D1
F3
20
70
22
AD
E1
15
16
58
7A
18
A8
63
0C
B9
EB
03
65
B7
2C
E4
E3
58
C4
17
0F
7C
19
45
84
6D
64
CF
BB
8C
A7
5F
E4
74
AA
CD
73
37
2C
D9
AE
B3
00
5E
80
22
68
3C
A8
84
03
1E
4C
1F
38
E0
A5
96
CF
6F
3A
7E
68
2A
D0
FD
36
15
47
03
78
12
A2
58
AA
4C
0C
60
B4
74
36
5B
BE
2B
9E
71
34
43
0A
32
A2
3F
1E
D9
63
71
56
48
0D
25
DB
D0
93
4B
78
E2
E7
47
54
AF
27
80
09
62
78
F9
BF
AA
89
E4
E3
39
4D
05
B5
E1
38
0E
82
C0
11
11
D5
56
6D
DB
97
D1
8E
C0
35
64
D9
FB
F2
DC
76
94
93
02
8D
15
34
DD
6E
B5
05
DF
AC
82
B3
7B
A6
7A
C6
07
8E
54
C7
36
29
AD
F6
27
9B
E8
27
45
8F
13
1F
FE
FC
9B
E7
54
79
C3
92
0C
78
3F
B2
F4
12
C9
85
B2
52
E1
C7
22
29
F6
45
70
12
5B
99
96
8E
D6
15
F6
6B
B9
45
AC
48
0C
A8
43
87
74
F2
80
14
D6
FB
81
3D
DD
E8
0B
52
21
CE
1C
1D
9A
1F
C3
7D
29
67
F2
7B
F4
3D
C2
BF
CF
39
03
63
BC
5D
D0
AC
37
D7
F6
64
64
EE
18
E7
DB
0B
AC
4D
DB
9A
CC
11
6D
C8
C0
86
33
6A
09
FE
F8
AD
C8
46
9F
58
C5
A0
56
27
31
A5
5F
8C
F1
3A
57
AA
79
B0
B4
97
67
C3
18
13
49
96
85
3F
DB
9D
42
CC
B9
99
ED
D0
7B
76
43
C6
F8
D1
1B
B1
75
C0
58
39
9D
5B
9D
2D
D2
AB
64
3F
58
DE
8C
87
C8
76
97
CD
72
C7
A9
9C
FB
A7
63
64
9A
C4
D8
35
F3
78
66
67
B8
BB
23
FD
1C
9E
2C
BD
37
F8
4A
4D
35
D9
BA
25
0C
2E
1F
29
73
B6
5C
80
12
F0
96
88
83
28
3D
0F
8E
DD
D7
72
A4
FD
F2
64
6A
71
D7
90
1A
F7
D3
CC
F7
CB
04
E0
0C
FB
67
10
C9
96
CA
CF
11
DA
C3
31
E2
25
38
80
1F
3C
08
28
C8
C7
E8
47
3E
B3
29
6C
9B
DB
F2
91
F6
B2
31
64
AF
3D
47
7C
40
A5
69
9E
FA
5F
99
A3
C7
56
4E
20
3B
C0
91
6F
41
44
F6
49
94
11
A9
C2
F1
6E
19
D7
F8
F0
9C
AE
59
ED
58
C7
5D
48
04
32
6A
48
02
2C
77
D1
49
12
96
F3
8A
16
D7
08
E0
DD
DB
2C
C0
EC
6D
69
75
5B
3D
CE
CF
0B
AC
00
5B
62
8C
A4
8B
0B
AA
28
58
37
65
A7
93
FE
B6
2E
ED
2A
A0
9E
DE
EF
E8
87
A7
15
47
EA
A5
F6
42
D6
FA
EC
3D
B5
D5
AA
DC
43
9B
96
16
EF
4C
1B
BF
7C
0B
75
E7
65
6A
87
8C
0C
89
A2
9C
52
7C
3B
6B
3B
82
88
EB
D8
5E
C2
FD
9C
BF
35
F9
CA
9B
99
C0
82
EA
91
73
35
FE
29
61
93
3A
DE
57
93
1E
93
FA
84
51
B9
00
12
5F
D0
C6
30
B8
9F
5B
08
FB
BE
05
D4
42
8D
DA
A8
E8
CB
7A
B6
B3
9B
A8
B2
AC
6F
1F
48
C7
C6
0C
16
5D
69
FB
43
05
81
3C
8F
CC
3B
A2
61
AF
49
53
CA
7A
A1
70
C4
15
2F
68
1F
24
7F
95
C5
A6
18
83
52
22
52
65
62
27
A1
DE
AB
F6
3F
A0
A4
50
36
0B
FD
27
27
8C
4C
17
80
68
66
09
57
F1
2E
32
E1
56
EA
9A
D8
DA
74
1B
6E
EF
5E
02
2E
1D
43
A5
ED
C0
FE
05
4E
E9
67
81
2A
78
E1
72
B9
7B
CD
C3
F4
5A
99
58
E0
13
38
B6
3A
FB
43
9F
45
73
6D
26
64
38
23
03
12
2B
CC
AA
0C
2F
9D
CF
A2
9F
DB
13
15
61
29
1B
D5
DC
C0
D1
81
86
0D
F5
73
AB
87
7F
5B
E9
70
E4
6D
31
E5
7E
D8
51
FC
E7
14
09
7A
13
E5
22
BC
D7
41
8B
A2
A5
CC
2C
05
44
42
14
02
B5
DA
AD
64
B9
7E
C1
A7
20
76
6A
AD
3D
A2
5F
9E
C2
57
D5
55
97
5E
E3
01
1F
A9
82
EF
DC
1C
2C
18
FD
D7
36
5F
BB
37
53
93
36
A6
50
E9
4F
E6
CA
72
07
7B
93
98
45
B4
C9
03
D0
37
22
72
99
10
60
8B
19
85
D6
EE
35
64
C6
24
D7
2E
C0
B1
7E
EB
AB
26
95
1F
DD
0D
65
28
59
05
1D
42
17
64
6D
CF
78
5E
50
F1
4E
A8
08
7C
C0
6D
5D
73
C8
9B
0A
CD
2A
27
B5
B5
15
E8
EC
7C
C6
B7
A7
72
38
DE
2D
61
7E
62
DF
6F
6D
20
A4
C7
0C
62
25
75
66
3C
76
F4
A2
A7
3C
C0
6D
66
53
3E
E8
D8
CC
97
F3
E7
BA
75
82
80
05
1C
85
FA
D4
EB
5B
50
D2
A1
C8
6B
E9
5E
26
62
DE
6A
92
64
CE
D6
5A
62
12
84
65
D8
92
C2
1A
88
0B
A4
85
5A
F8
89
A6
21
18
DF
92
C8
93
AC
D5
21
94
D5
3E
F1
1C
AD
BA
94
66
15
60
8F
E1
CE
8A
84
0A
ED
AA
7D
AE
3A
29
CA
39
69
C0
9B
FD
A7
34
4A
9D
90
BD
8D
E4
05
FD
C5
D7
76
81
F4
82
8E
8D
92
6C
29
D6
8E
6C
85
C9
38
3C
26
B5
C4
93
5B
62
3F
29
39
77
EF
F5
A8
72
4E
5E
4C
62
B4
9F
AA
D9
4B
D0
4E
4C
33
34
FE
BD
8F
A1
0A
D7
84
99
E2
33
1A
90
AD
71
67
24
C2
03
B9
CF
95
71
55
EF
6B
F9
B1
A4
98
8B
B0
78
D4
AC
69
B9
5A
56
69
D6
62
05
2F
3C
41
DE
39
6D
2B
A7
D9
EC
7C
5D
D9
74
9D
99
B7
A8
BF
5C
C1
5D
75
12
B8
66
9B
11
9F
79
63
0E
49
BC
20
DD
8B
49
AA
E2
B8
1B
1B
06
9A
E6
FC
00
EC
CE
62
E8
90
99
CB
11
1B
43
E6
A5
CF
F1
6C
12
04
97
56
A5
D5
FA
90
6D
04
3E
19
5F
79
8C
9C
9E
B2
89
DD
D3
2C
6A
0E
86
A6
73
E9
8D
E8
07
EF
87
E2
4C
84
35
C8
55
01
39
7A
F8
2E
EE
B6
F5
F7
7E
B0
7F
52
12
D0
D6
89
A0
8A
29
EE
CB
99
EA
A4
43
A8
BF
9A
53
7E
DD
A6
0D
F5
7A
A5
20
DC
17
A5
68
FB
03
F4
2A
DF
92
99
0F
52
73
15
3E
C6
CC
3C
64
86
4D
F4
A9
7C
82
1A
8C
D2
6A
23
32
4F
8F
5A
B0
E7
C0
70
69
9A
84
45
20
35
FD
9A
2D
C4
EC
4C
5B
4E
4C
26
15
7B
2F
CD
88
F5
D3
AA
F7
29
95
48
A7
7B
2E
AA
1C
E5
C9
C1
7E
3B
05
AC
EB
4D
4A
38
58
6C
32
A5
97
53
49
C2
79
A9
5C
C1
6C
DE
A1
B0
91
59
CA
79
A9
79
FE
E7
71
F0
42
BD
B3
1C
EA
EF
43
EB
3B
E4
C5
78
79
50
22
2D
E9
77
15
77
E0
7F
AC
B2
36
01
C6
ED
BB
61
CD
C9
1E
0F
7D
38
B3
8B
CA
62
B2
9C
B1
DF
4B
04
B6
AA
2F
80
CB
F6
26
AF
F5
93
16
63
81
6E
8B
4A
0A
58
2D
E8
23
5A
7E
65
7D
FE
DF
B3
F6
A4
A3
4A
6E
ED
E5
F4
AC
8F
7C
FC
9D
F2
B8
16
C9
6E
4F
18
23
14
32
46
1E
D1
62
B6
3F
E1
A9
3B
C8
B0
87
EB
BD
5A
2D
07
7B
A1
97
AC
9F
BE
F4
CC
35
8D
6B
FC
50
84
2A
CF
13
0A
D5
B9
0E
F8
D3
2D
62
F8
0B
BD
14
10
58
39
D0
45
72
23
62
11
AA
3B
A4
04
DF
BA
BE
D9
EF
9E
5F
42
61
C2
C1
78
9F
04
31
F8
AE
E0
76
0D
0D
89
DE
52
9C
67
14
B4
81
DB
52
A6
C7
57
81
56
04
87
E8
F9
92
EA
18
C5
29
E8
D2
EE
41
2F
2D
FD
F0
E8
E6
B1
B5
63
86
04
DD
14
7C
BC
B2
9C
67
6D
B0
7C
70
A5
5E
74
F3
44
29
CD
9F
6E
6D
06
10
7D
4A
C5
05
99
92
42
11
53
87
CB
32
61
49
2C
E3
9A
ED
0A
4E
77
7B
A9
66
26
AC
A5
74
D9
FB
1B
B1
66
69
4F
EE
53
A5
58
CF
A2
79
C0
B9
F5
5C
B7
01
C9
B1
0D
54
17
58
75
CE
73
08
9F
79
5D
0F
5C
DE
9E
77
EE
26
8C
89
0F
B1
03
22
4F
45
A4
FB
8C
8C
97
58
BD
32
DA
2A
1C
54
82
3E
79
BB
02
6A
38
DB
F6
31
45
55
C0
90
A2
1E
8A
74
C6
DA
27
FA
57
03
E0
88
65
CE
07
1A
44
CC
B8
9E
6F
F1
BF
93
A7
B8
2D
8C
00
75
0A
E2
7F
59
97
69
09
23
D8
E7
D8
35
BE
34
28
6C
81
EB
BC
E4
27
49
C0
BD
75
96
CF
3B
40
D4
D7
E6
25
F4
94
E2
27
9D
F3
79
85
7D
79
03
34
55
28
F1
CF
3E
60
BC
4B
8F
34
06
F3
31
D1
C7
80
18
9A
3B
6F
10
E8
F1
E9
E1
26
10
7E
D1
C8
B0
41
A2
64
EB
AE
44
9E
82
46
60
1E
30
76
8D
71
F2
BB
B1
43
C9
8B
CB
BF
41
AB
2E
B7
38
A0
57
CE
9B
5F
11
E9
2B
5A
6C
EE
5C
43
0E
B2
AA
71
51
04
27
C5
08
7B
45
C5
CC
59
D1
08
41
33
A1
3B
B6
39
F7
F7
52
7C
D0
4F
57
02
4F
8A
15
6F
A5
5D
80
6B
78
87
7D
03
75
0C
D3
F7
10
1F
DA
57
BE
14
AF
A7
2C
63
4D
F3
F3
60
C8
9A
87
37
97
C1
4A
A8
13
B8
99
A1
B5
FC
B2
D9
A4
D6
4A
82
FE
A9
45
6A
9E
8D
A9
47
47
4C
4B
E9
40
22
BF
30
46
1A
37
10
54
A0
63
B1
4B
3D
78
73
8F
27
EB
B6
57
56
33
9E
90
DA
DC
2B
E5
39
07
5B
E5
C6
FD
E4
74
00
15
75
27
F8
94
1E
A0
CF
13
53
96
B8
E3
24
D5
53
D6
F4
7D
92
2C
44
7C
9C
6E
44
C3
4F
49
17
F4
8A
EA
EE
C2
AA
62
A1
6B
00
B8
FD
9E
07
A0
8E
6D
C1
AA
94
0E
61
3F
AA
80
BE
C2
F3
1B
FD
7A
2E
62
D1
75
3A
EC
AD
FA
F4
0A
7B
90
A7
97
9D
EE
2D
02
19
BF
52
7C
42
9E
71
5C
4F
2F
8A
E8
18
E1
3A
2B
8A
64
5A
87
3F
5D
68
56
67
F2
33
80
F4
8A
EC
30
08
3B
26
E9
EE
66
0D
FC
C8
B6
5A
64
39
01
72
05
93
95
1D
72
53
33
45
C2
F7
01
56
EB
2E
29
09
40
26
32
DD
29
2A
72
F2
25
B6
50
98
B2
0F
4F
11
94
C9
C7
51
5D
06
7F
83
2F
3C
46
E2
BB
F3
44
28
2E
E6
99
C5
7B
A8
59
17
B2
8C
B1
A0
23
7D
FD
9A
52
79
77
BE
B9
BA
9A
41
BB
15
FB
B3
4D
98
F2
D1
12
A9
E9
D5
1B
41
AC
F9
2D
2A
53
BA
1C
4F
2B
3D
C9
E2
C2
FA
6E
94
64
C0
98
8E
0E
DC
34
C6
48
51
59
D9
8F
4B
27
06
F1
50
5F
11
2E
BA
7B
5F
16
53
02
70
E9
8B
75
51
79
0D
5B
8F
31
34
79
11
7B
76
60
A2
2D
45
7F
0C
31
BE
83
C1
EF
3F
90
53
8E
B7
00
30
61
82
C7
F3
74
56
EF
EA
A3
EB
F5
0B
A4
CA
DB
D6
3B
8B
2E
02
85
B2
E2
36
B4
CD
74
F3
68
5E
30
B8
CE
F5
6D
3C
85
6A
D5
60
C7
E0
BD
41
B0
7F
95
80
3E
AB
92
B4
E4
71
C1
38
D8
96
49
D3
40
C8
6D
D0
4E
2F
3B
1B
19
8F
F9
01
FD
F2
03
78
B1
08
9B
55
40
14
1C
29
72
09
34
8B
B4
88
81
1F
DF
68
BE
C8
9A
86
88
20
F9
05
F6
D8
93
22
09
1F
79
CA
A2
74
8A
15
75
9C
B7
23
FA
53
09
10
DC
87
52
BE
26
A4
B6
74
04
F9
4F
6D
F1
7A
F2
A1
1B
DD
D5
E2
C1
44
31
82
4C
F0
8B
26
5F
5A
B3
D6
18
94
69
6C
47
4C
EF
49
C5
29
CA
F7
F3
40
64
C0
15
95
21
40
81
D3
14
DF
5C
F9
0E
F3
2D
F1
43
67
58
8B
54
77
80
31
C3
DA
80
8E
6E
09
14
CB
33
1C
F3
BF
C3
6F
9E
0B
CC
2D
DC
C6
CA
19
8E
AF
3C
46
80
EF
F3
FA
BB
9E
07
94
A6
81
AA
9B
0E
F3
AD
3E
2D
19
93
76
C6
E4
25
0C
37
1B
C6
D3
D9
27
5A
8A
3B
B6
AA
6E
AE
B1
5A
8D
56
10
D6
E9
75
9C
16
F0
25
E4
09
32
60
ED
39
19
6D
5F
3C
7F
FB
F6
A3
AB
D0
4E
38
5A
95
C6
AC
A0
19
3B
D0
14
8E
11
01
55
87
60
8A
B0
F6
F1
80
87
D4
6C
0E
7F
89
91
BC
12
87
FB
FD
66
1C
98
C6
86
A4
6D
F8
EB
55
F2
26
4E
82
FA
DF
59
31
99
9A
7A
72
F3
65
7C
A7
7E
CB
14
D9
E2
92
0B
46
61
D7
B9
F4
0A
44
8E
E3
A0
EC
6A
49
C4
CB
FB
3D
B5
AF
E8
63
DF
03
E4
88
1C
48
49
F1
9A
D1
6A
AE
05
FB
48
17
57
5A
37
3F
00
A3
3E
05
A8
C8
A3
5B
F0
5B
07
4C
AA
3C
63
DA
08
4D
4A
3F
FB
E9
FA
C2
A7
89
4D
0F
36
79
58
B9
D2
A5
30
CC
A5
09
BA
4E
4D
BD
BB
B4
A5
00
1C
D3
E8
FB
DC
8A
AA
59
A2
72
7A
3B
44
A1
38
E6
9E
5C
23
2E
49
21
8B
72
44
05
E6
56
5B
A0
12
09
A1
EE
F9
53
F2
6E
84
63
06
53
FA
E2
86
39
08
48
54
BF
B2
45
2D
29
E2
A1
5E
24
48
77
75
6E
0B
58
F8
76
B9
CE
3E
EE
F1
DE
62
18
A1
8B
55
78
80
54
36
08
19
32
B3
B2
9D
B8
4C
37
DC
99
13
A8
36
5D
79
83
B5
1B
98
65
97
4D
E3
11
8B
02
2B
BB
46
B4
2F
12
BC
68
D2
77
F4
8E
5C
DA
C2
6A
E7
A9
A0
A7
F3
C4
60
77
E0
33
3B
2C
0C
47
BF
9E
73
E7
9F
F9
CC
69
87
87
55
26
06
02
BF
8F
49
A0
96
A0
55
80
10
BE
01
F6
2E
BB
99
B6
05
0E
51
60
16
94
A7
B7
A7
9C
16
78
96
8E
2E
1D
FA
19
75
B7
A2
D1
32
BF
E4
39
32
E6
B1
76
5C
5D
C6
63
B1
2D
E4
D2
0F
2D
67
E9
FE
54
55
ED
C4
F3
12
E8
8D
D0
BD
4D
CE
D8
1A
26
E3
2A
71
B8
20
83
CF
6F
FE
0F
67
BB
81
BB
29
29
4D
2E
E0
97
66
B5
4D
C9
E5
5C
88
97
3A
88
74
7C
85
9D
80
1B
88
67
A2
F9
EB
D9
5F
A5
F8
AE
CE
28
2C
E8
CF
34
89
C4
3D
8B
D4
87
E6
0A
C4
13
1B
44
93
29
57
CB
62
39
93
A3
45
0F
8A
C7
39
E5
13
65
CF
49
6D
8C
6C
40
51
C9
46
D2
AC
26
2B
97
F4
80
D3
20
B3
AC
B0
D4
CD
48
2D
F1
93
96
B1
45
DB
9E
7F
52
87
A1
36
64
BA
4C
74
94
E1
5B
61
8F
51
22
4C
97
B1
1C
60
89
72
16
C2
29
08
9C
26
82
AB
3C
C3
01
DA
5E
00
F6
A8
8E
ED
6B
A0
46
E1
6C
2D
A5
31
8C
EE
E6
FE
2E
93
F9
89
80
2B
28
FE
80
A9
78
EC
1E
92
92
C0
D8
37
BB
E8
42
E3
CA
BF
36
A9
BB
90
60
C6
D5
A6
48
DC
A6
86
0C
05
92
F5
BF
54
CF
55
5A
E5
D5
DA
14
75
48
E3
46
0D
EF
F0
82
00
0A
67
AA
D7
2D
AA
A0
96
19
17
BD
DD
FD
14
45
AA
33
57
44
27
E1
2F
0C
DC
DA
5F
CF
C0
17
02
C4
DA
29
A0
C3
84
7A
D3
BC
72
02
16
A7
BC
E5
EF
0D
E1
7C
5C
CD
2C
5F
14
FE
08
5B
76
90
87
8A
AE
60
3F
BB
23
EC
65
AB
ED
04
D1
A1
7B
0F
A6
14
46
B8
18
30
1B
06
4E
2D
AF
19
CE
EB
ED
64
00
A4
7D
9D
60
5F
5A
2B
51
1A
84
B8
4D
95
C1
AD
9B
82
66
03
CA
D1
79
E0
CC
9A
03
E7
68
22
D6
A5
CC
CD
0D
E0
73
2E
BD
52
DF
29
F7
CA
D3
D9
8B
E7
C2
FD
E4
07
C2
AB
A7
90
59
5B
A4
C3
CE
E8
EB
8A
A1
20
FC
88
89
60
BA
92
42
BB
75
E8
C0
39
63
FB
74
0A
02
1E
D7
24
D5
96
45
7F
2B
D7
36
8B
91
F8
B5
E5
72
E0
C7
FE
D3
D6
C0
CC
31
33
27
29
32
BD
62
7A
C2
72
EF
00
89
FE
7E
65
0D
D5
E0
7D
2E
B0
E5
B0
8B
EF
14
2A
3B
BB
FD
97
56
2E
37
31
B4
49
28
41
3F
9C
3E
62
0F
4C
0D
C6
57
9F
13
4D
AD
8C
2C
02
F6
0B
35
82
9E
96
5E
29
33
BE
A6
F4
60
AA
B6
79
77
9F
9D
5A
A7
10
61
89
CC
4B
9D
BA
D8
80
A8
DF
F2
04
B1
B1
AC
B6
8C
33
AF
35
00
BC
F3
47
32
14
9F
B3
82
E6
92
EF
DA
C8
3E
52
8C
54
8C
4F
D8
75
B7
02
70
E7
C7
04
B5
A2
CB
49
21
B0
51
90
CF
B6
AA
E1
04
65
BC
09
CF
0E
D9
3A
00
79
CA
3A
B0
BA
7D
52
BE
27
C0
CB
52
A7
8C
C9
0F
23
14
4B
28
75
CE
FE
AC
99
0D
24
5F
8E
4A
48
BF
89
2D
8D
61
B7
F5
FE
D7
05
E0
DB
76
C5
20
3E
17
5D
8F
FA
E5
C5
7D
05
62
4B
DD
5B
0E
E8
7B
CD
3D
A9
C2
F9
09
DA
E2
3C
FC
87
3C
55
F6
B5
06
E1
F3
BF
B6
5F
62
D2
26
E7
01
9C
FD
61
5E
17
DC
9F
8A
8C
4B
A0
D1
F2
21
6F
86
D8
AC
09
6F
05
1D
94
F7
F2
08
1F
76
27
7A
11
22
77
10
12
91
3E
0E
35
E0
E7
C6
5D
06
3F
16
FE
CB
37
05
9F
AE
80
8B
EB
4A
70
10
69
A1
D9
2B
3F
22
EF
49
0B
1C
76
99
39
2F
CE
D7
6D
E1
2A
DE
85
A4
22
AB
6E
8C
1E
7E
7E
65
4E
DD
AB
05
92
0A
F7
80
2D
FB
73
96
2B
F8
9B
C9
77
6D
95
4A
38
EF
2F
81
5C
3E
5E
55
54
F0
5B
53
B9
41
60
52
AD
42
65
D4
25
8B
C2
05
98
32
B1
E1
0C
91
B8
AC
10
79
21
67
96
62
B6
37
08
21
D3
CF
8B
C7
70
1A
38
B5
7E
E0
16
85
0E
7F
7F
3C
D9
C2
29
B0
F2
8F
8A
39
E1
98
4C
0D
D9
E3
11
B5
4F
85
69
D0
03
1F
9D
EA
83
96
D4
05
8C
73
38
AB
F1
88
C1
96
92
43
BD
41
07
7E
1B
7D
38
5E
FC
D9
C8
BE
7E
0B
DB
77
8C
71
AF
D1
FE
6F
A9
BF
57
EF
41
11
C7
B6
BA
AE
2C
C1
67
A4
3D
A5
B0
81
B1
FB
C8
E7
C5
69
BE
A0
E8
22
48
9A
12
45
0F
12
E9
5B
3E
77
9F
11
65
EF
BD
92
4A
11
88
91
5E
B0
89
4E
14
E8
2F
62
7C
C9
E5
D7
AA
86
A3
E4
2F
9E
83
63
B4
C5
CF
AE
2A
81
86
1E
38
56
E7
E3
97
66
E2
31
B6
E0
E9
45
4F
A0
28
EA
88
B4
70
7D
B9
B8
34
E8
06
A6
43
D8
97
7B
C6
E4
34
72
D7
A4
77
03
51
2E
6B
6F
2D
0D
46
38
B7
BA
27
BD
35
4C
3C
BA
84
E3
35
25
34
AB
A6
2E
71
64
27
12
94
70
93
D1
28
1A
57
64
17
68
BD
31
09
C2
95
32
27
A6
4D
FD
42
39
6D
A3
8F
49
59
2C
D0
C1
40
2B
E2
6D
D1
73
A8
CC
AA
E7
E7
B6
1F
97
8B
CA
1B
73
35
13
70
3D
25
D6
B3
13
D6
B2
33
CD
5D
5D
63
05
69
94
26
82
B2
79
AF
B6
09
F7
16
EB
A0
91
BB
26
F9
A4
1B
B9
7A
D0
E8
CF
9F
0F
55
19
02
29
A2
B6
AE
94
2F
AF
7F
3F
B7
A9
12
C6
FA
79
60
57
47
A2
31
40
63
E5
77
65
1D
0F
5C
68
C0
6D
00
41
04
3E
D0
9E
B7
C4
F1
6A
7F
00
E1
6A
37
3C
B4
E4
C0
59
9E
AA
92
C2
E5
9B
EB
BA
0A
67
BA
CB
7E
CE
1F
D1
30
4F
23
16
CE
6B
F1
B6
E4
AE
84
03
11
6D
32
13
88
42
FD
60
ED
4E
29
4F
E0
97
35
53
09
56
CD
4E
99
38
2A
50
2B
B5
96
3F
6A
67
D4
5B
5A
91
70
29
87
E1
C4
36
5C
0B
66
AF
85
59
E4
2D
F0
BC
10
A4
76
77
2B
CD
D0
58
B1
11
60
66
BC
CB
85
7E
59
FD
B3
75
C2
B5
61
1E
CB
AC
6F
7C
7C
8A
2F
98
26
69
19
3F
97
E6
B2
C8
5E
E5
4E
FE
0B
EF
F0
B8
48
13
BF
84
A3
2D
A0
EE
63
6B
6F
3D
5F
D1
DE
C9
5B
DA
4F
11
6E
01
E1
B0
D4
03
EF
B4
0C
78
02
56
51
A7
74
31
2A
42
C5
9B
F4
77
37
B2
5F
8F
89
AB
D3
68
97
7F
CB
9C
53
B2
92
24
B6
65
7F
C8
53
AE
C1
40
28
43
52
54
66
93
40
EB
BD
5A
7C
E0
A6
12
EA
8F
77
C5
5F
9A
85
99
AD
0C
18
9C
CC
07
9F
E2
B5
6F
52
A7
FA
E3
DE
7B
64
E8
87
5D
E4
C3
A3
7A
23
A0
74
C7
D6
A6
D7
50
FA
77
F6
1D
0E
15
CD
4B
1E
26
3E
F3
6F
DA
02
94
31
74
DC
C5
90
80
3B
6C
0C
41
BE
DB
6B
F2
4B
95
29
95
81
94
31
30
C7
38
CF
98
F3
E1
AA
B0
D6
E6
DD
E6
7B
C0
08
47
EA
08
11
35
62
36
41
F6
F0
DA
BE
08
3E
AE
18
61
99
1F
BC
43
1C
ED
44
50
76
72
63
6F
34
E6
DB
3A
C7
5A
25
78
73
B4
63
7D
8B
A4
8A
FA
BD
D5
A3
26
4D
C9
63
B7
6C
38
9F
DD
8A
51
07
2F
5D
0E
80
3D
BF
C1
66
36
9D
12
6C
6E
21
9E
8A
2B
75
C7
65
C5
E2
47
43
D6
B3
E7
24
B1
2B
5C
73
93
01
41
A5
33
21
4F
5F
8E
9F
07
33
3B
08
18
18
62
C9
11
B5
41
CC
81
0B
16
E0
36
64
93
58
25
04
6F
31
8A
0B
F6
1F
49
8F
FA
C4
EC
70
53
D3
A9
4B
7F
81
F7
7D
BC
B4
7A
F7
88
F5
21
F1
27
C1
5E
63
77
91
09
0E
D9
AD
4F
D3
58
6C
FD
44
B6
53
23
E6
80
3E
9B
A5
BD
0D
9C
B8
CC
D1
27
AF
7F
37
55
7E
1A
62
E1
25
07
4D
BA
69
9A
FA
E0
16
2F
7C
90
23
C2
4A
CC
C7
B6
30
36
0B
57
0B
7B
1D
C9
28
94
54
B9
56
E0
65
E6
7A
E5
42
71
B3
55
9C
97
91
B2
6B
DE
C1
D4
CA
43
6C
B3
38
D4
87
AC
08
75
14
0F
8E
6C
D9
94
5B
74
D7
A2
C9
ED
A2
05
56
45
6C
A2
A9
4B
00
D1
88
8E
39
F5
9B
B7
9E
72
0D
AC
3F
94
7E
81
56
98
35
ED
4E
D6
D1
3A
18
BE
5D
41
AA
35
D5
19
42
2A
14
22
A6
2D
AE
B7
72
A1
2C
64
D6
5B
2F
58
E3
66
84
36
38
D6
32
AD
C1
32
BF
C3
23
EB
F5
2B
CB
D9
9D
03
A4
6B
10
A5
19
8F
E4
59
D1
BE
CA
D9
B2
31
63
58
C6
19
C5
3B
8C
75
D9
E5
E5
BB
E5
83
CF
F5
25
05
81
A9
E2
D7
C0
4E
E3
83
36
BE
2D
D3
EE
D9
76
F6
2C
F6
DF
78
2A
06
E1
C1
E0
A9
E1
94
7F
4E
19
DA
A4
CF
2E
F5
60
80
0C
AE
F4
42
39
93
CB
99
F8
64
7A
A2
1E
37
7F
D7
97
7D
BC
D4
AC
4E
33
4B
DC
CA
61
EE
A5
52
1F
44
7C
AE
C8
27
E3
D8
DC
07
89
F5
13
7C
B3
5D
0B
05
ED
22
92
05
C4
A7
6D
1D
19
80
DE
CB
77
BB
35
91
1D
9A
7C
7D
52
A0
D0
04
89
1F
06
C3
D7
37
BD
4F
CD
D6
DF
5F
69
B2
C0
46
16
52
DA
34
75
0B
7C
7E
6F
2A
15
64
5E
83
08
1F
8E
ED
0C
79
30
79
18
A5
69
E2
4C
39
C0
BB
37
2C
81
A7
E4
14
D8
27
23
2A
91
F5
5E
98
1C
E8
9F
3D
A3
20
BE
BC
D7
18
71
F4
BD
70
77
33
78
C3
99
10
AC
C1
A9
5E
85
FC
97
1F
6F
7D
A1
59
CD
56
8E
3B
EC
37
EA
06
26
A0
11
74
6F
5D
C3
52
F8
04
61
E9
01
18
B3
33
48
AC
E4
29
F3
62
B9
B8
C4
72
80
F8
BF
2F
37
80
D2
96
FC
91
AD
43
55
F1
2D
AB
4C
4E
1A
15
E0
33
D5
89
72
40
4C
9C
A0
34
57
68
53
B5
F9
6C
E6
DC
A4
45
2B
C3
D6
61
3E
F5
ED
BF
81
BA
69
7B
13
FE
DA
CF
96
EA
82
CD
D0
A6
93
4A
88
DD
38
C5
A7
EF
F2
D5
2E
94
EA
A8
90
6B
C9
D9
0B
DC
66
E5
E9
5C
0B
EA
41
4D
23
F9
20
A4
14
95
15
D2
E1
6E
AC
BB
D2
7D
40
7F
FB
FA
9A
4D
4C
F0
27
DD
A6
F9
CF
2E
2B
AB
6E
F5
7A
0C
8D
1B
CB
57
8A
64
7C
3C
B8
DC
A1
40
BC
3B
A3
4D
86
B4
1E
F4
9E
C4
7D
99
60
42
F9
64
27
FA
9D
29
87
2A
CA
CC
F1
9E
15
AF
DB
29
86
31
50
0C
7E
CA
87
C1
D7
66
D0
AB
CC
22
41
AD
5D
4A
38
DB
C7
9E
0D
23
B4
C3
90
D6
E1
D2
A4
9D
B9
92
D0
91
71
BC
03
D0
5B
9F
3E
2D
D4
69
E2
E0
46
27
5A
0B
E3
A3
9D
92
A2
C0
9C
0D
0B
0B
16
8D
0C
37
24
8B
C1
F9
D5
7E
75
9E
C9
C7
C4
C8
1C
91
75
97
C2
37
02
46
CC
C6
7A
25
AF
4D
BD
A5
09
7F
5B
B7
3C
B0
7C
68
14
38
EF
44
9C
CF
35
65
85
C6
64
78
C7
5B
55
29
75
58
CF
CA
32
48
13
3C
F4
94
C5
C4
27
FE
42
9A
C8
4C
76
BA
B8
E9
5D
42
1C
CF
DF
9B
AB
8A
BA
8C
09
CC
B7
5E
DD
63
B1
92
77
3E
51
8C
64
7D
DA
96
EC
5E
6C
2B
2E
28
53
6C
EF
1C
90
AD
0D
07
AF
B5
5C
AF
E9
F8
47
85
B1
B4
AD
16
E4
BF
71
E5
2D
5A
B2
35
6D
AF
4F
8C
AC
93
31
06
3A
66
78
7C
3E
B5
C2
DD
5C
C0
CE
3D
EF
92
02
09
D3
BD
CD
0A
58
C3
73
3E
97
0F
01
13
36
4A
90
07
AA
39
58
7A
CE
55
91
3E
15
54
A8
14
58
AA
44
D4
BF
50
09
33
01
86
A6
CF
20
9D
02
F7
8A
AE
EB
E3
B6
7D
74
8A
D5
BC
33
2C
CB
A9
CB
C0
A1
51
77
8E
98
E1
CD
1C
42
B6
25
18
87
AB
76
2B
29
F9
77
95
B9
19
10
77
9A
83
15
BB
D1
DB
EC
7F
5B
83
F3
16
73
8F
B8
60
C9
0A
BB
65
5B
BD
4F
AB
77
59
9D
F9
C3
72
3F
63
02
3E
7E
24
9A
79
9C
49
DE
F0
E8
F1
6A
1A
F7
C7
80
33
7E
C4
22
8D
E6
BC
A8
DF
84
EA
F1
04
01
99
80
98
2C
34
1B
F3
BE
AD
93
46
1B
5B
43
F8
96
CC
1A
77
68
8D
D2
F0
EC
73
BE
37
A4
8A
72
F1
1A
6E
05
A1
6F
94
84
D7
13
1A
79
A8
21
F9
E3
7C
52
59
EE
33
42
E5
26
CD
BF
17
57
2E
A8
3E
17
85
66
5B
E8
0A
31
F7
76
23
13
C3
25
A3
93
DC
EA
02
A5
60
F6
78
3F
CF
F1
AB
EF
B9
FB
C9
0D
C0
C1
E1
81
98
A1
BB
52
77
22
4F
84
3C
B6
21
8B
AB
32
15
F8
D6
5E
A7
89
DD
CC
19
A3
56
32
77
A5
79
16
EA
FB
D5
88
90
85
BE
1B
20
5E
99
82
1A
C6
E3
0A
01
23
01
2D
BB
11
64
E9
40
9D
46
BB
63
82
BE
31
A8
CD
E4
3A
C6
86
51
2E
57
33
A5
45
B4
0F
89
BF
F5
CA
EE
62
73
B6
17
CA
A2
82
50
01
93
9F
7D
B8
BD
7C
34
E2
EB
A9
F6
38
09
C8
0C
62
6C
8D
48
21
6B
94
91
59
B3
9D
EF
44
35
CE
B9
56
3B
E8
D4
BB
42
5A
9F
B6
65
F9
31
0C
76
57
CA
ED
1E
FA
A6
3E
07
9D
00
B3
2D
D3
CD
E8
81
90
C8
BE
19
83
48
AC
22
8A
56
BA
1A
E9
2F
BB
52
78
A7
B7
3F
0D
DB
39
DC
A5
18
3C
0E
0B
1B
F8
67
2D
28
B3
AA
0A
A8
91
DD
6E
BE
EC
34
C0
61
9C
36
A3
F3
E8
2E
71
89
81
32
F3
97
6F
58
44
C0
A7
78
3A
C5
8B
04
03
0B
6F
62
6C
C5
10
78
4F
5B
D6
54
18
7E
E0
DC
FD
30
DE
C9
8C
B4
32
CE
B8
BF
AA
B4
94
F4
A5
EA
34
0D
61
9A
98
55
17
E8
BB
5B
B4
3F
6D
89
B1
A0
5D
29
C5
86
02
5B
6E
BF
44
29
85
44
CF
42
1F
F6
E2
B3
88
5C
FC
41
C8
3B
0D
0C
12
40
33
29
3C
31
BF
81
B2
10
95
5A
02
85
73
C9
61
B8
EB
3A
BE
4B
ED
9F
33
50
49
69
59
85
8F
1A
81
60
64
E7
4C
CD
30
7C
25
0D
BB
4C
69
C5
93
4B
4B
FB
B2
22
7B
6C
24
C3
7F
C0
E0
B9
26
02
29
FC
02
CB
E0
47
27
D4
13
9A
4A
2E
A6
C9
90
25
6C
57
DE
23
18
2E
C6
50
B5
21
80
AD
6B
C4
01
78
10
79
C0
AB
C2
74
BE
55
8E
39
C0
F1
F3
E7
AB
10
BA
BB
EF
12
51
C9
2F
0E
13
E9
71
88
25
10
B0
19
14
B4
7C
47
0A
F4
C5
91
2E
54
7E
52
91
8C
92
A5
CC
19
F5
C8
A6
04
D1
49
82
5E
9C
7B
9B
B7
D2
53
EE
F5
63
2A
49
A9
C9
E0
CA
A3
C7
C2
FE
F5
FD
EC
13
BA
D5
34
0A
62
84
37
F4
A2
90
45
89
84
B7
E2
E7
17
24
56
C7
DD
FC
61
D8
55
1B
A2
8A
B5
45
36
1A
F2
8A
66
8C
3A
DE
C1
0D
23
16
1F
CF
54
97
12
93
D6
15
89
84
4B
75
D9
B6
EA
92
8B
A5
07
75
CD
F3
13
7C
EB
69
30
4D
85
97
00
39
62
7D
DF
2B
AA
C2
E7
48
28
5A
E3
ED
29
99
86
2B
38
24
FE
90
81
48
2D
B1
B5
FD
46
DE
57
3D
98
F4
E3
7D
3C
F5
41
42
37
65
6F
26
01
7E
57
80
E9
79
82
40
CA
4B
44
6E
15
8E
48
A4
C0
7B
0A
9C
1D
2E
F7
8E
F9
BE
46
9C
87
12
53
A6
C8
13
BA
60
90
CA
16
0B
F9
8C
51
4D
6A
1B
B0
7B
8A
29
8B
F6
A7
53
EB
D8
1D
3B
62
94
A4
4D
8A
02
EE
75
76
3F
47
0E
2B
BE
43
AC
68
FB
33
4D
63
76
7D
56
6F
E4
87
C6
A0
A4
D0
A4
AB
BD
5A
DA
27
89
A6
88
DD
86
4B
3D
58
B9
BC
59
4E
EB
86
95
FB
E6
23
14
05
14
09
71
7A
AF
40
9D
AC
36
66
25
2D
36
D4
A3
C0
D9
FD
B0
14
A0
F7
71
B1
23
58
67
AD
E3
31
43
6A
CB
AD
F9
6E
02
59
DB
31
34
EF
46
2F
AB
6B
25
6C
5E
AF
45
49
AF
BD
5C
15
3C
58
51
B8
26
1D
0D
65
D5
B8
1B
2C
16
19
C7
DB
67
E2
02
F0
D6
F6
69
93
98
86
5B
64
98
5A
4C
30
E5
07
EF
1D
4C
90
A5
BB
C7
09
99
8F
0D
35
E0
A0
C5
34
EB
4C
30
59
33
ED
05
21
B9
45
76
BD
44
A0
55
1F
7B
C2
A8
E6
F9
21
20
3C
51
0B
D7
B8
E5
C8
59
26
B1
1A
97
44
4C
31
A5
D6
42
F3
A0
ED
6E
0C
96
E5
1A
1A
BE
BA
84
6B
F2
7D
B2
0D
FD
82
70
7F
DD
3D
46
CA
3E
36
2A
08
C1
9C
7D
04
52
4A
84
EC
CC
A4
F2
DB
D8
29
38
02
F0
51
A6
D4
AD
4D
DF
29
B3
35
E4
7A
14
7F
13
93
09
2C
BC
45
1D
A0
82
48
1B
35
69
DF
72
00
2B
D5
45
EB
EA
BE
D9
D5
1C
E3
57
3B
62
99
6B
9F
E8
57
98
7E
94
47
A6
97
61
FA
30
ED
01
D3
B5
42
8E
00
1A
F0
F5
99
2D
40
09
92
5A
07
39
6C
35
65
93
43
2D
37
A6
BB
F9
69
FB
02
D2
A4
7F
83
F0
E1
DB
BF
C1
7D
22
A8
48
A9
9C
38
C9
F0
A3
47
7D
65
E4
65
0E
2E
67
2B
6A
2B
7B
64
AC
37
79
F2
13
21
25
13
26
0B
0C
B9
21
28
43
23
54
96
25
B0
C8
B0
80
6C
25
53
07
DE
BE
EE
81
2D
3F
94
E2
85
F6
A5
A5
4E
67
27
0E
85
18
2A
B6
D1
FD
11
F8
9D
B8
0A
DB
23
C3
F4
F4
8A
24
5A
27
CE
D9
C8
8D
4F
14
78
14
E8
8A
7D
0D
7C
0A
2A
69
40
9F
F8
E9
35
47
8F
70
57
1F
D2
B0
CF
CC
4D
F3
22
B5
61
32
40
66
39
6A
73
D0
A2
C6
4B
79
19
EB
4B
A9
8C
A1
8C
52
BB
D3
33
9A
D3
F9
EC
FA
1C
0A
F8
28
EC
71
55
13
2F
DB
C5
6B
C5
4A
F3
C1
51
C2
37
F2
61
DA
F0
C3
E4
C2
07
E9
53
9E
EE
B2
4A
8C
F4
BE
B6
84
5C
0F
C5
F9
26
70
CD
CF
30
0D
26
CB
9A
6C
D2
55
7B
A1
47
74
38
4F
86
16
50
2F
70
FA
BC
F2
8F
AF
97
EB
23
4E
1F
24
D0
62
A7
86
4A
F3
17
95
B3
DD
D5
7C
F9
B4
E3
88
53
B1
24
30
23
D1
50
2E
8F
2A
EC
06
29
CB
0F
39
66
51
E2
F9
2C
43
E9
AB
A9
19
47
21
56
CD
B6
10
D2
D5
E6
5B
0F
6F
E4
D5
92
E6
B5
13
28
42
30
3C
80
FA
43
80
BD
D4
65
5D
18
DD
FE
9C
50
68
3C
63
11
38
7A
C0
BF
82
D7
4C
BD
66
1A
8F
9B
69
B7
92
FE
D1
50
D1
38
82
1B
2A
5D
C6
B8
D2
57
77
1D
CC
4A
E7
D1
57
AF
CF
89
3D
73
F2
22
07
77
06
A6
92
74
16
2D
C1
AD
1C
43
B2
41
53
CC
E5
3B
BB
22
FA
FE
F3
0D
B0
F5
09
A8
0F
C3
8A
CA
3A
39
42
22
50
49
4B
42
09
C4
94
9A
DA
9D
A0
9C
4A
9C
87
11
A0
84
36
44
79
0D
D3
69
26
89
63
F8
45
BE
0A
BC
BC
50
15
06
93
FC
89
EF
EF
33
02
D5
2C
39
EA
29
CF
1E
6B
62
70
E8
CC
E4
C1
E6
5C
7B
0E
12
79
A4
94
5D
34
F8
F1
A6
B3
9F
76
4A
3F
70
BC
E2
81
B3
4D
77
BB
CC
12
1E
D2
68
6A
FD
1A
7F
FE
36
68
E0
FC
D2
8A
79
8F
7E
78
B4
21
87
FB
88
39
43
70
E6
85
2D
A4
17
FE
29
B7
3F
B9
8B
08
33
AE
8A
B3
85
3B
6C
1C
E6
7B
4C
B7
A0
C6
58
29
49
60
06
46
6A
18
BA
14
7E
6D
1F
27
57
84
FE
64
36
AD
1D
02
D2
6C
79
52
1F
EF
4B
A1
F5
45
FD
98
0C
F6
90
F5
93
F7
50
31
2B
D6
2C
FD
19
FA
C4
E6
E1
79
96
F7
70
C8
6E
FC
6B
8D
90
99
8E
5C
F3
BC
AB
48
48
FE
3C
C4
87
5D
03
AC
46
29
3A
F2
2D
B5
5E
72
9A
48
38
AB
17
CD
ED
E0
7F
F1
13
85
8A
82
2B
86
30
CA
47
CA
72
4D
4A
08
F4
C6
4B
09
2E
01
2E
F7
0D
96
09
56
D9
5D
09
AC
97
F2
DB
B2
7F
31
6B
0B
63
59
A5
DE
BE
7B
A0
E4
4F
72
15
CA
6A
5B
59
36
1D
33
D2
C3
32
DD
20
A6
5B
10
C2
38
47
21
5C
7A
FD
CC
1E
F0
30
41
3F
B7
F7
CF
06
BA
DB
2C
C3
39
7B
B6
E5
10
BB
AA
92
4E
05
F0
20
6F
B1
18
BA
A4
AA
C3
DF
2E
AD
DE
CF
F9
E8
86
9D
80
75
F6
FA
98
65
02
7A
4B
C9
35
8D
5D
4E
AB
C3
0A
5E
C2
D3
F6
E6
51
59
AE
3F
13
21
02
B5
13
64
1A
C5
A3
0F
2B
2C
47
81
76
3D
DF
AF
51
6A
BB
23
69
BC
51
9B
B0
94
C4
54
41
61
F6
1A
24
7C
85
A6
95
C6
8B
71
EB
E3
C8
27
19
37
99
C0
4C
7C
51
FD
26
4D
72
30
95
C5
0E
AB
79
FE
DA
66
0F
87
43
1B
12
7C
29
DB
EA
A0
E7
DC
C7
39
71
19
EA
0B
6A
CC
3C
D5
DB
7A
A8
ED
94
05
D2
9B
FA
DD
83
69
68
17
3F
6B
A2
7F
45
78
58
98
CD
09
83
E9
D1
AA
88
5C
F1
B4
2D
43
62
1C
17
7F
B9
F5
CE
9A
63
6E
5A
23
22
39
91
9E
A3
DF
81
78
7E
06
E6
FC
F7
36
99
40
3E
B5
50
F2
F1
17
88
BE
79
E3
4E
BA
65
DA
78
9C
69
ED
52
D3
5D
D8
B0
63
B8
E3
74
32
1A
28
3E
BF
58
36
F9
A6
7C
FC
A0
D4
F1
9E
30
5A
EE
51
0C
85
19
EA
AA
06
6B
5D
83
FA
17
17
9F
C2
C9
91
C8
67
76
C8
F8
40
2D
5F
18
F9
99
10
06
CE
AD
77
10
B9
35
54
76
A9
74
B9
67
AD
44
D3
07
13
08
5D
87
02
29
C7
4C
30
1A
C4
8B
05
F6
8A
3E
90
8B
6B
D1
7F
A6
DF
08
E7
E0
98
C0
07
6D
AE
7F
DD
9C
CB
A4
E7
98
E1
27
4C
D6
7D
62
3E
1E
99
B4
31
87
32
46
47
03
B4
27
52
44
1C
62
01
C5
13
77
F0
27
46
06
1F
D1
C5
1A
EC
90
D2
1D
C0
A6
F4
2D
B3
D9
24
CD
A1
B4
30
31
0B
6F
87
3C
FC
37
6D
2D
4E
E3
33
3F
71
49
CA
40
14
B7
66
2D
DD
92
2D
7B
24
44
74
BE
4E
23
F3
24
D1
F0
9B
E7
9D
C3
E9
40
D8
BB
A4
57
FB
5F
85
B9
09
5C
89
1A
CF
CD
70
B7
24
4E
32
AF
64
18
06
ED
3F
C3
6E
EF
FC
82
93
E8
7C
C5
1A
3A
BE
65
01
91
0C
58
B8
2C
9D
99
03
40
7B
D1
4F
63
69
73
55
23
A1
FE
98
67
12
D9
54
A0
87
A2
58
05
6A
C7
9A
BD
74
3F
81
50
D2
9F
BA
49
53
22
73
DF
90
7A
EB
F4
AC
35
75
67
C9
CE
46
28
60
24
60
AD
F7
C1
74
3D
61
D4
E1
89
3D
01
49
D8
63
B5
49
DA
F6
3C
5A
2F
97
FB
69
21
DE
D9
81
7D
8F
09
A1
90
67
8D
DE
6B
C4
A8
92
E1
75
1E
CC
C7
4F
A9
B9
42
F0
A3
A1
F9
B8
BB
40
AC
2A
B3
3E
8E
63
8B
41
E9
7E
D9
B2
BF
64
2D
CA
72
11
F5
C1
C8
BF
64
B9
7E
BA
5E
19
3B
4E
BC
68
F7
A1
15
B1
07
2A
CD
F6
48
6C
1E
1F
4A
9A
56
4A
4E
8A
ED
BE
53
AD
15
3A
D8
1A
22
63
49
AE
ED
52
44
A5
3C
74
AB
AE
C1
97
88
E2
4C
A0
20
B7
C1
02
AA
35
77
F4
35
F2
0B
32
9B
32
B2
52
B2
99
50
52
08
40
5D
AA
3A
9E
35
80
C3
7B
F1
A8
E1
CA
7C
AE
A4
59
73
95
64
14
69
FC
8F
AD
90
B9
D3
2D
49
9F
D3
89
CE
CF
05
31
B0
41
5E
4B
05
59
BC
88
85
D5
BF
BE
8A
60
D4
91
1D
C4
3C
16
46
38
AF
79
62
2B
3F
83
E2
90
CE
10
03
41
B2
D8
D3
37
80
1D
0C
BE
A3
BA
73
2C
E9
39
AA
BB
A1
53
96
CE
2F
72
AC
85
F0
44
AF
FB
C1
64
15
1A
52
B4
6B
3D
E6
C9
87
60
F5
58
C0
D0
C5
77
A2
2B
31
E8
8E
0B
4C
0A
75
47
56
40
49
00
26
E9
B9
6A
B1
7D
0B
48
AB
7F
75
A2
2C
AB
9E
74
0A
A8
AB
3D
DE
A2
06
8E
A3
FC
86
17
A8
FA
2F
A4
C3
51
25
F0
E8
43
43
58
8C
49
D4
84
B3
9E
65
45
D9
3B
7A
73
7C
75
C8
85
0C
BF
F4
CF
71
65
63
6A
F6
27
7B
01
D4
E4
0F
B9
40
81
67
39
04
4F
B9
9C
6B
66
E7
43
3D
7F
44
E0
EE
EA
59
06
A6
DF
66
AB
A8
06
26
84
CC
03
02
75
66
76
0E
09
F0
F9
65
2D
9B
58
D0
88
0E
37
42
CA
C1
B7
C8
F5
72
EC
49
2A
81
43
B4
6D
82
DA
B2
B6
56
71
70
CC
60
26
46
E4
7A
17
70
8F
35
CA
5B
81
FE
12
32
52
1B
B0
05
22
22
0D
AC
E4
E1
EC
A4
E6
5B
E6
AC
34
53
E8
D9
A7
F5
19
B2
F6
65
7A
49
2E
6B
ED
F3
E7
B7
9C
84
B0
EF
D0
D4
13
C2
6A
74
D7
EB
92
85
B2
B5
F7
07
C3
A1
D2
25
42
FA
11
64
3A
FC
C6
B4
C8
63
2E
F0
1A
CA
F0
61
00
00
06
59
D9
BD
AE
4C
A6
E7
B2
86
83
53
C3
EB
74
38
E6
7C
5F
D7
4B
35
C6
37
A8
9D
47
20
AD
7F
06
42
A2
48
74
EE
28
CD
3C
E6
71
A0
54
D0
1A
30
82
7D
57
2A
9F
15
DC
36
9E
F3
67
14
0C
0E
69
C1
A6
82
D4
16
5C
66
E1
C0
9F
54
F4
D4
FC
BD
83
4D
5E
4C
E0
77
A5
80
32
27
64
2E
ED
86
5F
E0
4A
84
BB
E2
2E
93
DF
CF
57
98
9C
CF
B8
92
E9
52
EC
E3
00
7B
65
91
91
06
12
7E
93
50
39
D1
22
93
F9
24
CD
E3
43
A7
FB
00
32
E1
D2
8C
9F
B5
A5
02
2D
BF
82
30
AA
61
4E
96
C1
68
34
50
32
11
C3
70
05
42
84
05
C3
F2
4C
92
B3
13
CD
24
35
0C
8B
85
EE
64
23
1C
8B
A0
08
D5
9A
33
5F
71
38
E4
69
6E
91
DB
B1
B7
01
E2
97
65
56
BC
27
D8
18
F9
57
E2
A6
D6
F7
6D
24
EA
75
B3
1C
12
4C
64
8E
1E
64
06
BF
46
68
E3
AF
9A
7A
63
B6
EF
AC
44
85
70
54
B7
6C
4D
CF
56
6F
18
BB
C8
9A
B0
DE
29
89
B6
13
7D
B7
2E
4E
C5
6F
9E
A1
A4
19
96
0D
B4
CC
6A
FB
12
2A
37
FC
A8
05
7D
02
C0
F5
F8
99
97
C3
49
A7
BE
37
02
2F
23
00
D6
30
2B
A5
46
EE
49
7B
A9
52
E1
25
12
EA
DB
A3
80
13
B5
68
0A
51
46
DE
8A
CB
38
4C
62
81
57
AB
39
C4
B2
31
EA
43
E6
BF
A9
9C
F8
E7
EC
A7
25
06
B5
36
BC
31
67
5C
60
23
33
10
9A
93
CB
20
EC
E5
E1
9D
18
EE
78
9B
82
37
E8
DF
82
A8
1D
80
20
53
5C
F4
F3
17
8C
73
17
A7
AD
0E
54
71
15
2A
9E
70
08
C9
48
FA
EF
03
28
D5
8E
D3
29
E0
F0
D6
38
8B
3A
83
63
A7
36
E8
BC
CA
CA
75
DD
8B
BE
05
66
4D
89
53
11
8D
10
F5
7C
6E
BD
FE
46
9C
B8
23
B0
89
28
EB
E1
2D
D5
EF
26
D4
9B
61
F7
E4
D0
A5
9C
85
57
D6
40
F7
D1
BF
CE
1C
F2
4D
BE
C3
A4
02
A9
8F
03
41
30
C6
2E
B7
19
AD
FA
57
DD
63
B1
72
3C
51
FA
94
34
1A
78
2B
DA
31
4D
97
E0
36
3E
D0
12
1B
C9
6D
28
6C
85
07
25
D0
24
02
09
76
A7
67
A9
B5
8B
90
A4
34
DB
7D
26
92
7B
00
29
65
94
12
4B
D5
A6
23
38
97
3D
F6
48
35
D6
A4
0B
70
EC
3B
3E
BF
40
20
D0
91
67
3D
91
32
3A
ED
B0
5E
42
92
F8
F5
A8
58
81
0C
E8
58
18
37
E7
4A
FA
37
68
A1
C3
1D
6C
A5
AA
99
D3
16
10
21
8E
CF
EC
95
F1
17
1F
DE
8D
96
43
FC
C4
DE
5D
29
9B
82
80
38
DE
1A
50
5D
73
AA
D3
45
49
70
38
7E
1D
19
B1
80
2C
37
98
B1
12
A1
0C
E4
9A
CC
1D
55
4F
71
93
DF
4B
FE
C2
72
73
27
FE
95
C6
25
C1
93
CD
F6
E0
F9
E4
48
A7
DC
7D
FD
E9
E8
27
5A
A8
D9
45
B9
3C
83
66
F2
FD
63
EE
CE
62
A4
92
C7
D4
05
97
34
84
A2
CC
BA
6B
28
15
2D
DF
DC
3F
7C
5C
71
18
8F
CF
DA
5F
C2
27
23
8A
3E
C3
D2
8F
91
94
E2
53
39
07
13
C9
48
25
FB
C2
10
5F
4F
C9
D2
11
11
83
7E
75
A2
54
14
B8
14
85
69
64
BB
EF
4D
96
23
D4
1B
28
8B
A2
27
F8
02
86
24
3C
AD
DB
53
17
7C
F5
D8
72
03
83
EA
99
75
A8
50
25
85
4F
A4
37
83
5D
E4
8B
95
B0
C8
5B
4A
E8
A6
00
AB
FD
F2
FE
73
7F
BB
F7
6E
85
CB
B7
99
38
D0
9C
56
A1
5A
2A
BA
6B
AB
7E
12
D8
9A
4F
7B
08
AC
57
42
87
23
CD
DE
43
42
4F
90
ED
6B
0B
C0
A5
DE
E5
72
2E
51
98
21
43
66
DB
D0
4D
37
FC
67
C0
EC
6C
7C
53
BD
36
1C
F2
8D
80
3C
B9
5B
1D
FB
EB
41
DF
7E
8E
3D
93
57
90
35
29
89
C7
99
E3
9A
D9
B2
B4
8D
AA
83
4C
21
A9
79
3C
E3
D2
99
D7
D5
C0
62
B4
C9
F7
95
84
88
AE
D1
CF
1E
F3
79
E5
6D
CB
8D
BB
29
3B
18
D2
41
0D
F4
6D
0B
B9
67
14
02
79
94
2A
92
88
A4
C6
29
F2
87
5B
E5
75
26
7A
30
07
65
79
7D
74
ED
04
AF
44
29
AE
EF
07
0E
2B
9F
56
44
B1
51
4D
CF
21
BB
AC
F8
5D
62
A7
A4
12
77
DE
AA
8A
9B
5F
38
F8
CC
1E
89
F1
83
E0
C5
60
A3
79
84
08
7D
20
E9
CA
E5
6C
1F
40
E2
AA
FB
49
2B
7B
66
64
68
A9
09
38
AE
09
78
B8
BA
9D
E8
D0
24
34
AE
90
D1
7B
23
A6
F1
1A
1F
A4
0E
7A
F7
E1
63
B7
64
A1
0E
C3
2F
33
10
04
7F
2C
CB
8E
0B
27
B7
4F
DD
5F
C3
62
06
0D
ED
F1
5A
38
D5
DE
B8
4D
70
48
AF
31
6D
32
04
0B
E7
99
14
86
7B
A2
C2
97
91
AC
FC
6C
CD
6F
40
BD
38
4E
46
2D
FE
A2
1B
F4
EB
68
D2
58
C5
07
87
37
BC
03
75
D4
87
EB
E5
BD
3F
C2
27
A6
74
46
4B
8C
C1
C2
C8
4C
E6
44
F3
49
DB
08
63
E7
30
CD
34
51
74
C1
5D
B5
FC
17
E4
F4
0D
6D
1A
A8
0E
54
EA
AC
31
68
48
1B
8C
CA
5D
CC
6B
3D
A7
CE
0C
AD
6A
D1
38
03
C2
0A
73
96
F5
C3
D6
D0
C1
23
33
F6
A0
18
31
7F
B7
6C
3F
B0
73
22
78
07
05
8C
3F
71
3B
14
02
D3
BB
32
66
07
49
4A
6A
DF
1F
0B
34
18
47
7A
0D
98
E3
69
53
1F
CB
02
26
83
2D
EA
77
DB
52
3D
B2
14
EC
38
17
CA
4C
4E
24
69
5A
BF
E4
84
CC
F6
13
1A
85
A0
75
51
52
85
03
A5
78
96
1A
D9
6B
1D
43
D8
BD
E2
E2
8E
03
30
AB
47
3C
9F
55
9E
10
C8
67
20
E8
0D
80
00
DC
45
29
94
D5
B7
86
61
7C
3D
9B
62
7B
79
E3
4D
D6
32
66
C1
F4
BD
C7
CB
66
87
4C
36
08
C4
7D
0D
28
26
EF
0F
B8
81
3A
98
34
F4
1F
81
0A
39
E0
E7
3B
AC
6B
C1
DF
39
EF
99
64
07
10
0F
7E
1F
96
C4
80
BC
10
CE
4D
90
BA
61
2A
13
15
58
2D
23
4F
98
F5
87
6E
6F
1E
3F
2B
7C
1F
F3
03
F6
21
43
3C
A1
10
F4
CB
86
53
0E
F9
F3
C2
00
72
3D
45
A0
E0
EE
4B
68
CD
8E
48
C7
6C
68
C1
DA
B9
46
9C
8E
81
FB
A3
9A
17
6A
50
93
E8
3B
CB
CD
6A
94
DF
98
C3
5D
78
5C
40
B6
1B
AE
BF
6B
27
27
B4
C7
8E
1D
5E
3B
30
33
CF
F3
BD
28
D5
27
4D
01
E4
34
67
83
23
3D
23
3C
F0
61
40
AB
7E
D0
7F
4A
3D
B2
CE
90
88
9F
59
6F
86
D7
AA
97
17
E7
39
C6
C6
F2
8A
DC
D5
9A
C6
0B
D8
28
D6
F7
34
F8
49
BD
80
48
60
4B
7A
A0
34
98
9C
EE
31
E6
AB
B7
60
45
7F
14
36
A5
42
AC
8F
68
9C
A2
81
E2
68
E9
A8
24
FE
1C
7B
01
74
09
1A
A8
06
FE
EE
05
79
D6
16
92
69
95
E6
9D
56
D0
8E
E7
44
94
D1
B4
9B
31
7E
AD
50
74
69
CC
EF
8B
21
94
E9
14
E9
1E
1D
66
EE
55
91
E1
EE
4B
66
9F
1C
AF
94
4E
83
9D
32
D1
D8
70
8F
D5
FD
C5
D9
32
98
4C
56
ED
9A
DE
04
D4
F7
C8
3E
8F
45
3D
D8
E1
5E
10
D4
31
F3
32
8C
E0
14
C4
95
82
96
C6
EB
CF
E5
76
22
65
03
BD
B6
D8
6C
3C
E3
83
12
8D
2E
56
A9
B9
F6
24
27
25
48
CB
D0
C1
56
DF
88
C6
0E
A5
20
62
B2
5A
B7
D3
56
CB
38
AD
CE
7D
CE
A8
2C
17
76
E2
F3
EE
50
C0
DA
3E
A1
8B
8F
11
CD
A3
4A
64
8B
21
6D
A4
68
80
E0
6A
A0
B8
AE
19
80
68
71
DA
14
92
61
43
C0
52
70
08
68
CB
EF
D4
D1
55
A0
80
C1
04
8E
2B
C6
3F
A4
2C
7D
B0
80
46
3C
72
EA
2B
22
00
97
17
21
1F
D7
30
8A
EE
26
45
DD
86
4E
CB
E1
76
28
0C
20
7D
08
18
54
DC
D4
5E
7B
CD
A6
DD
99
7A
B0
1F
D2
8C
55
43
33
D0
2A
91
BB
50
E7
37
DE
4C
2D
9F
DC
BA
22
04
01
3D
10
44
E3
3E
4B
1F
D7
9D
C7
E1
C3
06
3F
7E
BF
A7
F5
BF
83
AA
19
82
B7
63
DC
7C
F8
22
83
B0
CA
87
32
EB
E2
B3
E4
8E
AC
EB
8C
1F
89
C8
BE
50
16
DA
65
76
95
C2
5A
08
FB
96
25
06
3C
1F
1A
10
55
5D
9F
03
6F
EE
C4
74
DE
12
56
17
A1
2E
F4
AF
44
EC
23
BD
66
8A
DB
27
6C
F0
73
D3
D4
88
D0
21
F2
4F
B5
6E
16
BB
24
57
86
8A
28
1E
CD
8F
10
E3
28
64
9A
C5
83
B4
50
88
A5
1D
C0
DF
6E
DE
31
11
04
1F
95
A9
14
A2
6A
76
E1
13
9A
10
3D
5F
E5
A5
A7
88
6B
2D
B6
4C
2C
43
74
7A
64
67
32
4C
B7
C2
52
8D
50
F6
7B
94
27
B0
0F
2E
9D
3A
D5
6B
8B
68
75
D2
BA
AA
87
16
3D
BE
DE
6C
96
8A
D4
F5
EA
9F
9E
E3
43
3E
4F
84
C3
6E
6A
30
D4
C2
C8
5D
DD
99
EA
8D
12
3D
A1
1C
27
5E
26
4B
3F
5E
A4
C3
82
8A
69
99
4D
86
78
D3
AC
C9
C4
7E
86
38
AF
37
2A
46
48
A8
37
58
FC
C0
5F
A4
98
93
0F
A9
D0
56
B4
E4
CF
B5
FB
68
2A
E7
09
91
29
A8
FE
37
4B
B3
DF
8E
CA
8A
72
17
BF
09
FA
06
D4
19
29
70
8F
75
39
13
06
04
95
27
5F
EA
DF
D8
AA
BB
7E
1E
A5
9D
FD
E2
41
83
CD
95
7C
6F
FC
DE
25
1A
63
29
66
7B
5A
0B
89
E8
E1
E8
B3
FC
3C
BD
A3
44
4B
FC
D9
6E
40
CC
43
CB
BD
47
25
2A
0D
0E
CF
7F
79
AA
40
EF
24
D3
32
43
26
63
E0
91
C4
CE
95
90
00
F7
07
59
47
AB
26
E0
3A
5D
0B
55
2E
D6
60
8B
18
B2
31
99
9C
A6
AA
51
FE
F0
34
4F
C3
5C
30
75
0C
ED
6B
44
D0
20
5C
4A
D2
25
FE
7D
BF
1E
37
80
CE
45
BF
F5
9D
A3
1E
47
E9
8B
55
E1
AF
8F
5D
6F
E5
3D
FD
84
F9
AD
DA
8F
9D
90
E1
BC
12
20
C3
34
46
32
19
33
F3
65
D5
17
CF
1D
6C
95
2C
2F
34
3A
51
98
E8
30
64
3C
FE
03
DF
24
3D
E9
B0
51
BF
13
A0
26
8F
3F
66
FD
15
53
59
01
5A
88
36
7E
F5
A1
93
2C
92
49
51
F2
3C
13
A7
34
56
C2
53
D2
AC
1E
A7
CD
54
5E
F4
F1
83
F9
0C
6B
5D
45
6D
01
95
2B
97
CF
24
2A
25
A3
3D
87
11
4B
0B
DD
F8
00
BA
8B
4D
39
26
56
F2
AC
8D
9D
A5
6E
5E
97
2E
74
FE
30
F7
33
51
85
A2
03
DC
B4
7E
7A
0A
A8
C6
0F
FE
63
C2
EE
1B
CF
A8
A9
C1
25
34
5D
57
17
DD
CA
CF
3E
CA
C7
AD
17
C3
20
6D
E9
1A
15
4B
7E
69
95
10
24
AC
C2
28
AA
90
36
F1
95
82
A8
B3
F9
06
BE
84
22
60
C2
96
34
C0
54
EF
1F
06
C2
47
E0
B3
24
12
15
C1
77
C9
8E
D3
DD
8B
C2
99
47
CA
27
6A
C3
9F
04
EE
5E
ED
35
19
99
5F
DC
0C
98
8C
27
41
AB
44
60
83
2B
8C
BA
61
3E
70
08
83
ED
7A
75
AB
7B
B3
1C
92
BE
E6
4E
65
0D
F0
F9
2E
58
81
B1
2D
26
01
FE
49
D6
E8
6A
92
89
72
0B
2D
80
6B
A0
87
0D
BF
91
FC
77
F6
3C
76
A2
9D
6C
60
8D
9F
78
1C
B1
74
87
E9
5D
4D
A4
5B
16
6A
32
C6
FA
AB
67
44
CD
67
DE
D8
86
56
E3
1A
31
1B
8F
E1
D8
C7
C4
A3
AF
78
D0
B5
6E
4F
27
AA
26
AA
FC
D4
DE
91
2A
EC
94
15
39
A9
12
81
59
0A
80
AE
F2
A9
0F
37
CA
E3
CC
E0
2E
81
57
7A
70
01
FC
D1
1D
84
BD
3D
6F
10
8C
50
89
77
D6
19
01
74
8F
AA
8E
5E
BD
D8
CD
04
4D
0D
DB
C7
5D
C8
7B
3A
25
CE
FB
84
DE
6D
83
B8
9F
D1
13
5A
1A
08
99
2B
5A
A2
90
B5
03
95
12
48
68
A0
D7
1B
B6
7F
C5
F6
AF
F2
86
F0
7F
A7
9E
5F
6B
83
69
94
CC
55
4D
B3
01
4A
53
6B
AD
7A
38
BC
C9
2B
0D
C8
4C
EE
C3
80
36
EC
98
97
25
55
B8
D2
6E
14
A5
02
C5
6D
ED
37
E3
73
23
26
62
1F
F3
13
2B
75
6F
61
8A
B1
78
DB
DD
53
5D
4F
D6
F6
78
9F
E6
3F
AB
24
2F
8F
3E
04
8D
60
3C
A2
4C
38
7B
21
45
CC
83
68
E0
1C
06
4C
CD
35
21
E7
A0
AF
FD
2D
24
D6
C7
83
4C
70
36
8D
E2
81
74
9B
DD
49
29
61
E1
73
CA
D3
36
FE
79
E2
37
9B
81
CD
13
4D
2E
3A
DB
6C
E1
6F
50
BF
F3
C1
81
07
4E
B9
F9
4B
F9
12
A1
36
A7
02
15
46
C9
1B
5F
AA
E0
6A
9E
7B
A9
AC
DB
DE
7C
97
B7
51
D2
29
AC
E2
B7
DB
AE
A2
5A
8F
67
09
C9
64
34
03
D0
A6
2B
CE
E2
20
30
96
80
A2
76
5D
7A
FA
94
85
77
50
74
7E
1E
A4
4C
EA
C5
7A
2E
DD
B9
7B
8C
93
63
BE
8A
D3
D4
40
43
AF
74
38
59
4A
BE
72
61
2C
8E
3B
84
4F
01
81
DC
37
0E
6F
44
91
48
63
02
D9
F2
55
2E
15
63
0C
4D
75
72
92
30
A0
C9
C0
3B
54
42
E4
8E
90
3F
A9
58
21
BD
8C
61
99
FB
57
FC
02
BB
A2
88
EA
33
07
41
83
D4
D7
2E
41
67
25
B3
C3
A4
BC
0C
EC
CC
64
42
8E
6E
BA
A8
FE
BA
26
A1
01
D9
A2
FC
EF
DD
F0
1B
5F
52
0B
A6
A8
FE
56
F1
7C
7A
91
85
73
F3
03
F3
83
BE
DF
86
BF
4C
26
F8
7D
85
97
F6
70
A4
45
02
94
E8
1E
AD
5F
ED
73
70
A4
E8
C9
1F
1C
69
EB
34
DB
F0
8C
F8
43
B3
7A
CA
88
00
FA
A4
47
3C
F9
37
0A
59
DB
24
9C
95
CF
72
7C
0E
74
32
14
AB
44
4D
CA
21
59
44
78
48
B8
0E
D4
E2
C2
BA
B8
D1
EE
85
4C
F7
BB
C1
0F
FC
C6
31
E8
86
AD
5D
31
97
12
08
08
30
DE
85
7B
98
E1
91
13
A9
C8
C3
AF
29
EE
13
3E
D7
FC
DF
7A
67
54
2A
E0
98
4C
C9
36
94
99
F6
04
DD
DE
B5
E6
D6
C4
27
1C
2D
E8
AD
81
D5
56
A0
04
9B
EA
EA
15
77
DF
30
0C
1C
DF
51
C6
E2
A5
77
AF
83
BB
38
99
B5
EC
74
28
28
6C
4E
FC
0F
8B
BB
43
57
9C
49
30
5A
DF
E8
31
D2
D7
BE
CA
51
04
F0
7F
D6
6C
73
D4
B1
4D
36
20
3A
56
EF
C2
E7
C8
21
