6C
9E
9C
68
D5
D2
88
1D
29
7E
70
82
CA
EA
9A
C3
56
F4
CE
45
49
9A
E8
D5
D9
A3
F7
1A
50
E5
61
BC
A8
CC
C6
5E
59
35
78
DB
D0
2D
DE
62
DE
BC
85
02
36
CE
BE
DC
24
DF
DC
94
C0
3A
41
35
92
0E
25
A1
39
D3
12
28
D8
03
6B
2D
5D
4F
5F
CA
DC
B1
69
53
B9
B0
92
FE
3E
5E
27
5D
56
02
E2
CC
10
40
8C
8F
F9
7A
9F
A1
7F
00
13
82
F7
5E
89
24
A1
1F
9B
7B
D2
84
2D
0F
51
CF
99
E6
5E
64
05
93
73
D0
E6
A5
C5
9A
EC
A6
94
3D
9F
15
34
11
6A
12
F5
A6
78
E3
30
BE
DA
45
EC
9C
0C
B7
1B
83
6F
7C
14
00
98
D9
5B
E3
53
BB
98
0E
FB
EA
CE
F8
EF
86
FC
64
70
E8
71
2C
A4
6B
A4
A4
57
04
46
23
9F
4E
3B
D0
14
82
74
17
01
B4
12
62
BC
09
D3
86
C4
F6
CB
E6
E0
E0
D9
57
75
04
37
05
B9
D8
12
89
25
3D
D0
0A
F9
05
F1
28
2B
CC
D3
18
DC
56
86
51
6B
2B
EB
48
2A
83
FE
1A
16
0D
6B
CE
38
D9
53
F0
2E
DF
00
5E
13
F1
C0
45
00
B7
7D
84
CB
21
7F
5D
AC
B2
9D
13
07
4D
BF
57
58
7D
2B
02
E2
49
8B
39
D4
40
56
20
C2
30
B9
6D
A3
65
AC
F2
13
D1
8F
80
A1
43
00
93
6D
10
AB
AC
95
17
9F
4B
CE
33
9B
D4
85
50
3D
52
4F
92
F6
49
FA
B4
15
CE
EA
28
55
0B
A7
72
8D
41
62
B6
66
AA
A0
46
91
44
23
1D
05
3B
91
51
2A
8A
EE
86
A7
55
A6
A1
C3
18
68
64
56
7E
6F
AF
0B
85
8E
D7
15
99
47
08
85
F8
91
C0
75
90
D1
8B
3E
52
D2
74
FD
DB
15
E0
D2
A2
CE
5B
4E
C1
A8
05
33
57
C3
01
C3
02
B0
0F
8F
45
1B
B1
54
EE
2E
72
17
72
46
10
69
10
2A
C2
54
95
65
7C
03
29
D9
5B
E3
CE
EC
5C
06
BB
FB
6B
BB
77
0F
CB
5F
4C
E5
EC
25
D0
FE
CA
96
3B
EC
DB
5F
EC
C3
89
26
5E
F3
E8
CF
DF
4A
E9
97
6A
C6
46
A0
48
D3
4D
42
73
65
59
B8
FB
76
04
AE
FD
28
F6
46
30
48
D9
20
BC
A8
5B
A9
5E
2E
3B
61
B8
A3
12
36
2F
4D
3A
C6
3C
73
2A
9D
AE
2A
9A
13
99
F5
9E
6D
52
3E
50
A0
0B
6E
B5
1C
9F
F9
84
E3
15
14
0A
1B
22
DC
23
D5
26
83
E3
13
0F
74
AC
84
4C
8F
16
77
D7
6A
C5
ED
1F
5D
36
73
2F
2E
7A
07
BD
25
A0
1B
EF
CE
1D
52
5B
DA
E6
38
31
E0
A2
F1
A5
E8
F2
99
D8
F3
6B
93
A0
1B
D5
05
A6
85
52
B4
98
3D
7C
72
5F
D4
8B
0E
39
1F
BC
78
A3
90
65
91
F2
46
D2
0F
70
8E
03
AF
E5
C8
6A
ED
88
52
54
0F
2E
6A
36
0E
F4
67
3D
1B
1A
D6
D0
18
4E
DC
68
87
32
1C
1F
E6
A3
93
92
A1
70
94
92
D2
47
B5
A7
D7
1C
A3
B9
4A
AA
0E
9B
CB
C4
DE
28
48
5F
A6
C0
A8
6E
77
7D
CA
06
4E
58
5F
99
CC
C9
4C
FE
C2
B5
01
2E
9D
E1
9C
DA
1E
2A
BA
E9
FB
0A
D9
59
A0
F3
81
B5
09
88
83
3D
CF
F3
D2
3B
43
20
B0
FC
0F
BF
D7
E4
E6
AD
22
92
F1
6D
A5
B3
72
66
B4
DC
69
B1
2C
8A
E0
ED
19
69
E6
B3
74
08
BA
16
15
2E
39
5B
26
A7
72
CE
E0
AB
F1
7D
85
6A
AF
0E
2F
E6
55
35
1B
A9
93
CC
2D
D0
48
4F
BC
FA
44
E5
E5
E6
45
2A
EB
BC
30
21
63
53
F4
08
22
DC
2D
89
38
D5
17
40
22
51
24
5A
4A
10
7E
02
1E
D5
3F
82
EB
2B
55
CA
8B
95
85
C6
21
2D
4D
DF
5C
CA
36
2F
02
D8
C3
FD
DB
D9
B4
97
C6
10
45
76
AD
1E
DB
EC
F4
DE
39
7A
32
B2
E1
3F
9A
7A
0C
2A
FB
EE
C7
0E
3A
70
29
3C
9D
2E
85
58
D4
92
9E
FA
6B
75
B9
5C
D0
80
F0
09
3D
1B
2D
53
0D
93
A3
9F
8A
5D
64
7B
E5
CC
D8
D8
D0
FA
47
76
55
50
40
34
B9
69
C6
17
20
B9
90
21
5A
89
0C
CB
69
C3
72
3F
35
96
9D
57
91
69
44
9E
5C
16
D4
7C
B5
AE
47
C6
DD
9A
80
C5
B6
11
6E
0B
73
CE
69
21
E7
6B
8B
8F
02
97
BA
83
F6
3B
D7
D4
C3
F1
DD
50
A3
DA
A9
B9
18
B8
48
97
10
D4
C8
DB
73
59
1D
E6
B4
68
69
6D
00
11
37
D9
BB
DA
D4
03
E2
2A
C6
F2
4D
F0
F9
F9
E6
60
02
2B
DD
AE
35
74
40
BC
24
B9
C5
3D
36
BC
57
49
38
EE
F7
C0
A2
57
19
2D
1F
D8
40
85
08
72
68
06
1E
C3
5D
F4
1B
E0
25
4F
36
26
23
09
08
1D
C1
53
A9
61
B7
A7
48
E9
A3
F3
63
04
4B
1F
8E
33
F7
D4
E9
E4
31
49
C9
12
2F
C3
A4
F6
28
8D
B0
DD
FC
BB
BC
8A
09
35
49
5D
F0
F6
9C
3A
AB
BC
4E
E2
6F
EB
56
48
73
D3
C0
CD
A6
0B
03
23
47
C5
BB
CD
C0
A6
FC
91
F7
5B
0F
3C
CD
AC
72
A8
F9
88
75
A6
F6
9C
DC
45
74
D2
12
D7
50
4F
0E
5B
D2
C5
85
4F
7B
81
2A
8E
EF
F6
5D
0F
CA
BA
BF
57
3F
3E
14
31
C0
9A
06
04
12
31
15
0F
40
C1
B7
2A
99
A7
12
BD
E8
38
F2
8E
19
30
01
2C
E6
50
51
B4
59
CD
8A
77
5D
7B
19
36
40
01
A2
6F
26
0C
6A
2C
5B
1A
32
F7
DB
9B
BB
BE
63
63
40
EC
E7
88
19
29
18
A6
60
53
98
CD
A0
5B
8F
7B
A0
4E
49
17
CF
02
2F
33
13
A9
55
21
38
32
09
3C
EB
92
FB
B3
7F
F0
A6
F0
D5
B1
51
66
45
58
A5
8F
25
19
A5
7B
38
AB
5D
24
F9
EF
55
ED
40
3D
C2
7D
AB
51
91
A2
A8
94
3A
C0
20
06
94
17
46
90
A0
C1
C9
A7
D5
1F
C1
05
1F
20
64
14
AA
D7
95
62
28
B2
09
C2
CA
79
50
23
F0
E8
FA
CD
2D
24
42
AC
73
9C
B9
A6
F5
78
80
C9
52
ED
2F
5A
19
08
7C
B9
11
51
0F
62
69
55
80
E1
48
51
24
3F
FB
4D
28
12
6A
7D
1C
C2
22
0F
D9
86
4C
D0
F8
29
F1
B0
AB
DA
A8
32
E8
BF
41
CE
2E
06
9A
96
10
98
A5
07
3D
A9
29
3B
06
0B
20
11
D1
B3
27
C5
DD
B1
D1
A1
66
B1
D0
D1
CA
75
B4
DB
D4
3E
9B
71
96
53
19
99
D4
A1
B8
54
7B
7A
3D
55
79
61
48
10
F9
70
43
DB
F5
77
DE
A0
6A
DD
FC
66
4B
13
6F
57
1E
BC
6D
DB
28
02
21
61
32
26
98
06
EF
F2
8C
26
6D
AC
74
7F
1B
50
84
31
20
DA
66
10
73
E0
4A
A0
44
D0
3E
C6
97
FD
7A
C4
2C
CF
A8
33
C6
CF
E9
4B
5D
B5
D7
69
21
39
5F
95
00
04
82
07
B7
ED
F8
D4
8C
FA
8C
F2
89
58
BA
D6
1F
06
27
4D
4E
AB
5A
E1
D3
F6
3E
3D
10
72
8C
3C
2B
2C
94
C8
EF
3E
86
D9
38
6C
71
40
42
15
9A
30
DA
E4
06
42
36
21
97
41
B3
81
33
67
83
AF
B4
86
19
DA
A2
13
A1
62
BE
21
B0
80
56
7B
FA
6B
C7
2F
9B
62
08
0D
47
59
E9
51
A1
13
32
53
E7
51
00
B7
2F
8E
14
B5
38
BD
A9
B8
DB
33
CF
92
7A
C4
61
AA
E4
1D
58
30
BF
11
B1
ED
2A
10
53
6B
B0
7E
2B
78
5B
CF
16
AB
FA
6E
E3
21
C2
EB
64
E4
D5
63
4F
57
E8
51
4B
55
CA
B9
D5
59
96
A3
1E
0B
E9
6C
9E
DC
5B
31
7D
4C
C2
01
F4
AC
10
AD
41
B7
70
D9
3D
B8
B4
1B
3C
1D
F0
1F
D0
9F
D0
F8
C6
50
